▁Franc
▁Elis
makeText
▁Valid
▁Дата
Brain
▁besides
▁első
▁geom
ament
▁octubre
Category
▁deel
Constraint
gram
▁Shaw
▁documentation
▁latach
Loaded
days
rito
▁DM
Ang
▁grateful
▁inject
▁Joe
▁whenever
NUM
▁in
рист
败
▁Movie
▁wh
▁incorpor
開
▁Mitch
▁brings
▁conditions
▁evidence
aro
▁bom
▁peculiar
▁gruppo
annels
itat
maps
▁rh
▁safely
▁October
▁infin
▁statt
▁earned
▁comer
IABot
▁integr
▁Kan
lex
ိ
▁Din
лта
argv
getElementsBy
▁lui
▁spaces
▁свет
▁guitar
▁vr
ské
elve
писи
////////////////
].[
SError
▁ihren
bere
▁Extern
▁Áng
▁deutscher
embl
▁Range
▁Castro
▁ful
▁Usually
▁shame
вор
▁comuna
▁redund
▁MainActivity
yó
Turn
▁Boh
▁Ghost
▁increasing
Mvc
▁primo
重
Repository
▁Wis
party
esters
}%
▁pesar
],[
群
▁Sm
▁Vertrag
árs
▁Pre
▁domain
唐
海
rian
tiny
▁college
▁Kunst
▁mieszkańców
Timestamp
▁supplies
県
itter
{\
▁hadn
▁heaven
▁Olimp
▁axes
▁Sche
▁Serie
quin
η
▁годы
▁¿
入
▁Just
▁quelque
gc
othek
string
,’
▁spin
ﬁ
▁Nu
Section
straße
ząd
▁surtout
▁Winter
無
▁Trans
▁Ro
先
bez
▁Sign
▁polski
iki
▁DI
들
issance
▁thr
▁unfold
►
=>
▁Ol
random
▁depth
▁kwietnia
▁poem
▁perce
▁Everything
:--
ета
▁bra
<0x6A>
▁Cow
Contains
ialize
话
eren
▁jur
qué
onym
ograf
onneur
otal
alty
▁aa
은
addr
▁Dra
▁Scot
▁generally
sequ
▁kann
▁convenience
▁Aur
▁famille
ологи
Note
▁Jon
▁Multiple
▁Depart
▁leak
mass
eria
cot
▁einmal
icion
ко
Stage
ו
▁brasile
▁Middle
social
uous
▁Zak
ров
ева
deb
fr
werk
▁nú
Rule
<0x67>
îne
вър
anti
▁bib
Ar
+
ąż
▁altri
▁cb
▁equations
▁GET
▁Halle
▁Prov
▁data
∙
▁eig
}"
记
▁Muse
▁j
vés
▁preceding
umble
ittee
▁Adel
lam
jt
▁Info
Bob
ณ
▁dentro
▁spos
▁syntax
tembre
▁Verm
▁себе
ét
Art
▁integral
ную
▁Species
month
ování
▁Rev
▁mor
▁divs
▁Анд
▁$|\
American
uth
üd
▁señ
▁by
▁комп
▁hip
▁detect
hal
▁Frances
agne
delta
usetts
ray
))\
│
pointer
▁después
▁improvement
bern
xter
:)
▁
▁sign
▁át
овий
▁azon
▁permitted
uning
▁suppose
▁werden
bia
ɲ
▁счита
kbd
▁Current
▁Sep
▁seiner
▁rig
▁merchant
▁kl
▁районе
од
▁Janeiro
▁Steven
▁въ
NER
▁Zur
du
编
▁XIII
▁bodies
▁Galerie
jective
armée
bean
<0x4B>
Γ
▁bezeichnet
ozzá
▁IR
cowo
mobile
ocker
▁Lemma
▁Mike
Ľ
▁creature
]="
azzo
▁thinking
▁вто
▁line
▁Parti
▁enero
▁isn
}}}
▁hoof
chn
▁Spec
▁Ans
▁carefully
failed
<0x61>
ictionary
por
fileName
▁Crit
register
iot
around
▁савезној
state
Problem
чных
▁Cong
▁consid
助
ː
▁Tennis
▁precise
odio
▁sent
▁spacing
yr
▁favor
▁unw
.\
²,
uff
▁$.
▁encoding
▁eredet
▁inference
fach
？
FS
▁фа
}}_{\
щё
▁Remember
▁devil
▁having
▁totalité
Store
unning
씨
▁Vert
▁фон
▁popul
▁имен
▁inizi
циона
[@
ший
)_{
cpu
LOW
icz
▁aproxim
quote
▁Во
▁mac
▁Й
middle
tar
kernel
▁vie
nier
ali
▁Johan
-,
▁til
▁ways
▁Исто
▁optimization
series
▁sant
ARN
▁opt
▁Чер
<0xA8>
dr
ternal
▁heads
▁matrices
▁disease
▁yo
当
▁Left
reference
sect
▁localhost
▁Battalion
G
ئ
generate
pr
▁Ah
▁Silva
▁zip
▁care
▁Pfarr
Agent
cció
▁Hof
zburg
▁Wall
+=
чке
sible
fill
▁answering
▁lég
▁counted
aching
ktionen
▁variants
oy
▁abbre
▁prepare
▁fra
Indicator
plant
opp
▁dependency
APP
▁leave
▁обращения
pected
▁vendor
▁Fr
▁wyd
▁assumptions
zeuge
Union
ika
ктив
▁emot
▁initialization
Louis
▁profess
▁shoulders
▁difficulties
▁dx
../../
▁%>%
Sh
scri
{
▁an
▁pressed
▁retir
Scene
▁keyboard
▁onCreate
▁zas
▁Česk
▁leaves
clus
▁not
ób
bat
ɔ
▁organized
▁vide
bian
▁lead
лки
▁stronger
▁locally
▁works
kol
▁Murray
▁Julia
uly
cop
▁побе
<\
▁symmetry
мов
客
▁язы
test
▁variations
▁interfaces
▁Bak
ütt
▁et
vention
斯
▁mathematical
metro
▁Ча
ères
▁Carl
UNCTION
icht
▁Tan
▁Przypisy
orient
▁Dezember
▁збір
aglia
▁puesto
▁Opt
No
▁exponential
▁zdoby
Scal
▁habitat
How
▁varchar
▁Mem
compute
▁otherwise
▁machines
▁less
ři
▁rend
▁Cook
า
▁finales
umb
nos
차
▁basket
wendung
▁hous
▁ending
ponse
【
▁strict
▁plt
▁Harr
▁nast
▁populations
▁Volume
▁Wang
õ
▁Field
ское
▁ka
aces
adu
contents
▁river
▁rooms
▁yours
▁singleton
방
ushing
▁Olympic
lik
▁Bret
РСР
iry
▁commented
identity
▁territoire
enschaft
oma
▁Dev
<0xE4>
▁manage
▁HashMap
▁Grande
▁backwards
▁Tra
▁\\
"=>
enses
▁stand
▁Performance
▁irre
▁мож
pressed
ter
▁vois
▁triggered
▁deprec
net
rides
seed
ur
▁insbesondere
▁pag
▁split
▁Failed
gency
场
▁ec
▁lei
▁име
iginal
iseconds
▁GB
▁masses
▁oc
▁ór
ved
▁pieces
▁wordt
)).
▁November
боль
▁président
iona
▁customers
щ
▁Khan
Ë
▁Mouse
▁GROUP
zip
▁android
▁Senator
ORS
▁gro
▁września
▁interrupt
eus
▁Card
▁Az
▁alles
ätt
ans
▁spec
▁younger
ego
character
▁aj
▁era
▁Code
xl
tel
vex
▁Try
inci
цы
▁Till
▁interval
▁horse
▁impos
essor
Temp
eduler
▁Van
▁yard
ș
▁breaking
asure
▁ho
▁És
▁exhib
▁Tool
▁Daw
oux
▁received
▁Training
▁forget
attro
▁защи
▁Vincent
▁Zent
▁deg
▁thanks
'}[
osof
Names
▁'',
werb
bec
bru
cji
Att
▁ред
▁représ
▁się
▁Cab
iller
▁Process
▁Far
▁dia
valueOf
▁decom
▁participants
tod
▁А
Work
▁genannt
▁Null
▁day
INCT
indu
▁Linki
▁Pul
▁scient
ifting
▁strik
▁suite
▁Vor
▁dangerous
▁Marshall
运
HE
▁WPF
icial
▁Chicago
▁nombreuses
request
▁Stefan
▁Marco
$:
>::
▁bringing
▁represents
Le
▁uploaded
▁moderne
▁transfer
/)
▁Nether
▁Star
Interface
édie
ської
▁Wieder
▁Rol
▁тан
ót
'].
Helper
ства
Esp
<0x0A>
мерикан
▁map
с
▁Jes
▁intellectual
男
▁Dort
▁Marse
▁arquitect
linux
man
zon
▁Properties
шлен
▁giorno
▁implemented
▁K
atum
▁такой
▁ikke
ných
▁olimp
▁био
nam
possible
▁Karriere
▁neigh
文
▁Kay
VAR
ăt
▁Kaiser
▁Blood
▁Verwalt
jší
▁október
iffe
flow
uting
▁Gemeinde
▁Ку
だ
▁чу
Username
ię
▁Johnson
..."
ítás
▁quattro
▁primarily
▁clouds
destination
▁escrit
认
observ
▁letech
xyz
▁Ро
ben
rze
▁четы
员
▁César
uper
▁département
▁District
▁offers
▁Until
▁pul
task
▁Map
▁lé
▁Open
cite
turn
▁flux
pn
တ
BA
<0xEA>
рован
iste
▁ListView
ición
▁infinity
ธ
Factory
ܝ
rent
▁executing
▁años
▁flex
▁Cal
ovo
ּ
▁what
ATION
▁contrast
(*)
▁kat
▁Historical
▁Ca
▁mur
▁nation
▁wsp
blic
▁Home
▁Main
▁Billy
pragma
⁵
▁Rand
pecially
▁occurr
$}
Mult
iß
iano
▁pubblicato
caught
▁location
oro
aal
song
endencies
▁Мос
nar
quet
agraph
▁files
▁installer
▁direkt
verter
₇
▁Institut
▁grund
тали
▁Venez
▁appropriate
▁generale
▁gather
▁Herbert
newcommand
▁birds
allo
切
implies
varphi
юза
segu
Type
タ
istic
fall
station
▁Bell
▁cpu
▁paper
down
▁stories
▁została
Music
▁My
OC
▁frag
▁Senate
lands
▁dove
ooth
▁Buch
▁avoid
▁Herzog
▁Демо
idence
Family
▁wonder
zeg
pi
żs
▁ép
&=
Петер
prés
よ
'$
▁vista
▁guer
шого
бер
ísticas
▁fill
▁voet
▁Mars
ן
itated
谷
fe
lapsed
▁Roll
cloud
▁kole
▁mort
<0x71>
▁debido
▁США
▁länkar
aturing
хід
▁fish
]->
▁fmt
ceil
▁One
ophe
FD
ünstler
▁INT
website
мия
emu
▁mission
▁permit
▁principe
▁alco
PP
askell
le
▁Arnold
▁article
high
▁toe
▁extremely
长
▁externas
▁dai
_{(
iffer
useum
ittle
▁arbeitete
▁територ
▁column
php
▁человек
▁consideration
тех
∘
fiddle
av
▁ang
▁File
Off
▁elev
зя
▁weiteren
▁Settings
▁aggregate
▁Jap
Complete
ása
▁unusual
yme
▁band
▁divisions
使
plain
Sign
田
▁Com
jas
▁Low
▁converges
▁quando
▁Ice
undo
▁function
(__
▁il
▁Arbe
▁bek
▁ц
值
▁".
▁міс
ield
aking
stadt
▁pulled
▁Gu
vious
%'
effect
▁Mün
loyee
▁Games
▁digits
▁suitable
ara
.).
ifs
notes
track
▁){
▁Iron
▁año
▁decid
four
▁executable
▁чемпі
▁interactions
гне
▁Florida
▁Prize
consum
▁bibli
▁бо
▁CL
▁Chine
▁knock
Tw
odn
▁Ret
▁mog
ishop
jus
▁message
ˇ
ivity
ляет
▁directions
target
pisode
▁letzten
┘
owa
command
▁Bus
▁Alabama
▁Judge
▁ihrem
fixed
▁appreci
encias
▁Rach
▁opin
entries
ходи
’
▁'\
▁Gra
▁flutter
▁install
▁swing
▁Kre
▁Rick
lez
▁smallest
.}
▁responsible
▁ensure
▁места
ced
itzerland
idx
▁Guillaume
▁gi
▁Monte
▁zeros
▁case
<0x5B>
▁charact
=""
pec
▁lands
▁slot
Domain
cker
▁structures
▁sir
▁profit
pla
்
isse
▁papel
▁Schmidt
▁Sen
▁Wort
▁сай
EditText
▁Naz
▁Snow
▁seizo
▁марта
▁acceleration
mov
стов
agr
Reset
cade
multiple
▁trim
ridge
lare
▁Assuming
č
▁fore
▁joy
▁lot
▁ort
▁ASC
▁Gold
spr
▁IN
ierno
▁Ng
ruit
▁appears
く
ソ
agan
▁approximately
Over
rh
oslav
reichen
çaise
туа
onial
pull
▁Ill
▁appearance
▁religion
▁площа
♦
ik
version
▁our
▁Edwards
UID
▁IM
▁adv
ץ
▁:
NR
¿
▁ratio
ologie
ṇ
gcc
textit
zak
iman
▁cap
mo
▁software
▁Rotten
hall
Ð
plex
▁люди
ialog
ủ
▁batter
▁дела
Stats
▁Invalid
▁Після
rium
ischof
▁expansion
́
▁senza
葉
тре
▁Laurent
▁Client
▁Torre
▁Among
ր
▁Ga
ństw
▁Metro
▁Wolf
▁Süden
cial
requests
▁Berlin
▁Литература
年
▁Population
hing
riteria
▁rez
ega
▁Larry
hof
ání
▁maj
otr
сни
Next
▁selects
ез
▁Bayern
▁wider
▁largo
▁ru
▁weeks
▁spectral
ury
itore
olta
osi
agnostics
lla
▁tudi
<0xAB>
arga
▁Professor
で
▁Lieutenant
▁Place
▁ASCII
Max
▁Marina
inburgh
▁was
води
▁late
▁registered
▁född
▁gay
▁'-
▁Zh
▁Ontario
▁Aires
史
éb
brand
制
▁flesh
limits
дія
▁office
algebra
meisterschaft
▁came
лов
egung
▁Gallery
▁dio
mn
▁Pass
▁Buff
hr
▁enqu
▁Association
▁Die
ق
eping
▁afternoon
▁coupling
ugen
illet
mos
fass
oll
ін
▁Hinweis
镇
▁Knight
▁burst
mathop
]}
appen
▁news
common
kte
▁Hell
▁compagnie
▁están
▁ref
lyph
▁brand
ammen
▁cleaner
suite
yter
▁marg
▁moyenne
▁Heart
♣
▁older
mund
encia
IST
▁Ю
▁olymp
▁quote
▁gmin
Zyg
ason
oses
{
▁English
ouble
ớ
loaded
льный
▁Cés
]_
source
I
discussion
▁crime
ry
▁linking
▁Johnny
▁atom
▁R
立
▁debate
▁Overflow
мер
▁Méd
ervation
▁probl
▁reputation
▁Guide
▁Franklin
▁Transfer
onato
▁subjects
boldmath
▁Sor
ína
▁coll
ein
uint
ynamic
▁dag
!
▁real
ampion
GROUP
riage
afen
пози
▁ESP
▁cuatro
Range
emplo
ival
scriptstyle
gif
iare
aterial
北
developers
▁pił
kir
TEST
ческого
▁Rosen
▁How
▁Frank
▁hunting
▁profession
▁progress
Œ
▁begin
athol
ONE
Ă
NT
AG
omen
▁Alo
▁philosophy
▁Parliament
рі
¡
vector
▁peut
insic
onCreate
deck
ThreadPool
ados
▁остров
aylor
▁одно
']
▁deuxième
Authorization
htaccess
тара
▁he
город
▁Sah
伝
good
desktop
▁jusqu
Vorlage
▁If
Test
thick
▁laugh
▁verlor
football
cular
주
ulse
К
▁compens
▁focused
▁sp
▁similarly
ivas
▁Gut
書
лежа
▁Doc
RIPT
▁Getting
▁sug
▁temps
▁slaves
cols
▁SQLite
▁occupied
▁Wei
▁products
▁assemble
Replace
▁responsibility
▁Бер
EG
▁employed
▁Сте
▁Pa
▁shadow
▁Kloster
▁steam
▁розта
▁успе
sg
urable
ship
ige
poque
▁ov
<0xCB>
▁('
▁Franz
▁sl
ansk
▁Ross
▁объек
werke
cludes
<0xE3>
▁repe
MC
rows
▁camp
oport
èce
▁via
ле
blast
▁Warner
NC
▁plata
▁Magazine
▁tren
▁vulner
lim
ры
blica
▁основ
▁vba
▁along
ær
丁
▁NSLog
andid
▁también
by
ilor
▁F
▁county
imum
ifts
▁anderem
▁hierarchy
aining
price
ями
<0xFA>
▁Feuer
▁ge
Full
________
▁Ка
▁standard
▁aggreg
▁maybe
▁trace
bernate
Version
▁confront
▁magnific
▁existence
▁messages
▁Kirch
▁свои
sc
▁Manuel
▁travel
京
▁sell
▁Native
▁Kurz
▁театра
▁secret
▁{-
Bound
▁kunst
▁Бело
ній
figure
<0xEE>
ivot
▁ow
refer
▁parse
bytes
▁também
▁коли
▁cheer
▁Dave
▁ense
▁iz
updated
enburg
▁Elizabeth
▁inten
▁ast
laravel
▁best
unter
▁aid
▁nun
▁Jason
▁slight
job
Deb
urger
entials
jar
▁\(
▁gennaio
▁infant
ден
fog
▁nello
像
▁team
化
повід
▁Clement
▁compute
▁règ
Stream
gesamt
▁AA
Two
▁expedition
▁Giorg
chmark
▁Namen
▁particles
inal
oplus
jes
▁Begriffsklär
▁Valle
▁amery
виа
▁Kommun
<0x64>
▁Account
▁Ny
oop
郡
RIG
▁моло
Leg
arts
▁Ž
▁Sebast
inking
族
▁Program
umbn
▁challeng
wikipedia
▁sport
/@
ienie
▁Jac
▁trois
textcolor
Elements
FP
▁admin
▁round
▁IO
▁modification
▁h
▁бу
▁password
▁molto
▁tree
rer
änder
▁зв
▁wereld
▁};
▁dokument
▁Cru
▁mongodb
jem
ował
class
escape
▁College
ouverneur
wh
З
▁released
▁vict
▁se
жений
L
Qt
ч
▁році
▁asks
<image>
client
ф
onian
▁successo
▁Hum
▁vin
門
▁Besch
▁sorts
-$
−
▁dw
▁commer
▁Constantin
▁*.
idal
iks
щения
▁probability
하
▁honest
enden
▁tried
family
ynomial
▁element
ifolia
▁Kub
▁beat
NSURL
pective
▁Both
▁extr
▁hoch
▁quit
▁качестве
▁Расподела
plom
ensus
▁Jahres
▁gesam
▁orbit
other
▁established
emat
▁Cr
сле
до
far
varchar
кам
ongo
▁international
▁stackoverflow
▁населения
generator
en
▁Roc
▁Batt
▁It
ography
▁Publish
▁ella
▁window
itza
gres
▁CH
цима
Bounds
Ḩ
sein
▁dével
▁intro
▁Ду
Que
郎
▁Michigan
my
▁fand
alion
placeholder
elta
▁log
~~~~
▁ig
ague
ikh
êtes
ције
ilt
▁Lorenzo
▁citt
串
▁UNION
metros
▁extreme
▁client
▁От
▁Kate
▁dal
ič
out
对
▁composer
<0x45>
Mar
arget
▁estar
▁negoti
нет
▁=\
▁Instit
▁remporte
▁regres
▁віці
▁written
▁grupos
▁è
<0xB8>
▁neue
▁First
телем
▁BB
*.
Cam
▁gé
šč
▁Bruno
▁player
▁*/
▁driv
▁Profile
<0xEB>
&&
ems
hanced
▁Default
über
▁revolution
sender
▁cuales
▁leurs
▁inn
▁letting
▁confirmed
vl
▁vb
minipage
▁arrow
▁husband
CAT
r
дав
ultur
▁defined
▁Mongo
▁mit
▁$("#
ples
pass
▁shares
➜
▁prze
▁geboren
lear
▁пописа
cuador
чив
лько
lg
upp
▁zu
.’
Page
Ű
▁ili
▁szám
airs
zek
▁Eisen
▁Brigade
花
▁мі
sequently
▁solemn
▁win
▁THEN
▁Austria
▁typing
td
mc
thy
огра
▁eggs
unnel
▁persist
LENG
hält
▁Bevölker
▁Calendar
▁сель
cur
▁autres
olare
DOCTYPE
зо
▁Design
idense
database
▁Luci
groupby
▁Suppose
▁multimedia
Pro
▁willing
▁nearly
▁Compar
▁EventArgs
校
ULT
преде
▁Ident
▁returning
Video
texte
▁ajax
esty
(*
页
coln
create
▁riv
▁dor
▁ze
▁Security
▁powie
ieb
sett
▁kra
▁whites
▁die
▁österreich
▁utf
▁Christians
▁grat
▁часть
▁Bel
ふ
inge
orde
▁Shakespeare
▁Верхов
mapsto
widet
ű
Do
▁ciudad
▁Під
YES
('\
))
ские
ActivityThread
½
▁Euro
▁CA
|^
circ
宿
You
▁vall
▁sight
Location
роди
▁анг
▁competed
▁Santa
ziale
▁mile
к
▁pressing
▁Hawai
▁Laravel
ueil
тиче
▁Pow
oston
ife
aku
▁problemas
Inflater
ὴ
▁simulations
▁left
dist
▁observable
▁Gram
▁nag
▁cultural
concat
ühl
wahl
▁century
▁Мексика
Invocation
▁curiosity
▁archive
び
^{-\
상
ander
Or
)_
ilib
Gen
quez
▁ben
▁roads
▁conform
É
▁plat
▁parenthes
▁stam
▁Kevin
▁compat
▁amen
ater
previous
uling
▁спе
вших
ając
▁sat
xe
▁Гу
nginx
љи
▁dashed
应
▁passe
)$,
▁ADD
Ú
ètres
▁DC
▁Driver
▁luc
▁ore
authentic
uate
▁però
)
論
▁Trad
▁sele
лась
fif
лага
▁appropri
▁letters
▁whose
éné
label
▁equivalent
▁spatial
▁sure
feed
ря
.[
▁Enllaços
足
▁ва
Data
kor
▁Cris
▁Soph
▁Window
候
▁momentum
▁свобо
zeichnung
itation
▁había
▁aim
фика
▁crit
▁exclaimed
<0x74>
кро
);
▁For
▁logo
Env
▁Ubuntu
▁midst
▁recens
prep
▁terre
helm
▁ren
═
>>
▁wire
mente
Release
urity
▁kommen
hol
Emp
utor
▁infinite
▁Date
▁some
itzen
에
▁sla
ors
▁categories
▁wszyst
ṣ
▁Arch
нан
thread
▁Dj
▁Daniel
▁filled
Open
AV
▁Hermann
▁very
▁heavily
▁pse
inos
ieurs
▁Power
xxx
▁allocated
▁decomposition
▁Vent
Develop
нього
▁produced
▁writ
▁scarc
▁Last
LAB
LC
▁Colombia
▁acted
isson
lah
\\
ἰ
▁ancien
▁тро
▁revista
▁$\
▁determ
>.
▁Conse
él
▁Oak
▁Albums
erc
▁Olympics
▁durch
▁stability
ended
standard
▁deport
ees
І
▁Tochter
offset
▁ford
****
Observable
лимпий
古
<s>
▁tier
macro
▁recre
Then
ospital
▁images
▁Gay
▁glass
▁Starting
▁land
▁fool
▁bonus
▁г
: 
wach
++,
ʰ
▁fer
стю
▁▁
ános
display
▁or
▁others
▁spread
osis
INE
式
onio
▁Население
▁paździer
кси
ppel
▁molt
▁sint
▁Schön
▁Сов
こ
▁grup
rivate
oben
▁way
fik
nbsp
望
▁officer
нциклопеди
▁Stephen
▁cinéma
▁dies
▁Major
<0xF3>
▁Kont
▁private
▁return
▁partners
▁Cub
ülés
atis
rible
izzato
terre
Options
▁suffering
▁diesem
▁calci
▁réalisé
▁tanto
igent
▁worden
top
▁Hamiltonian
вала
そ
note
nung
▁patron
▁сов
]{\
▁Access
oru
▁Lac
▁inform
▁maxim
▁spir
▁Tw
como
<0xD7>
zenia
▁гла
▁Simon
▁ord
bew
登
Trigger
▁Administration
▁bill
bre
tot
ensions
▁village
▁throne
built
On
▁Ep
▁incorrect
▁burn
ов
▁Verein
reten
##
return
▁Попис
ヴ
quisition
Ign
▁imply
documentation
Week
me
▁student
wide
▁чемпиона
▁Василь
address
stable
▁[{
▁immense
ベ
▁polit
▁okay
▁partitions
▁(**
ikan
₄
лось
▁Items
ste
▁taken
▁części
▁fun
▁Connect
▁trap
zo
ву
▁'.
▁Francia
▁Hello
▁Liga
."
vb
▁PC
▁País
▁discussion
▁ruby
▁trivial
▁pet
▁gl
rale
▁Tomatoes
模
ន
▁fuel
"))
raph
▁finns
▁Lomb
numeric
BD
imet
koz
▁Hend
▁rece
yard
▁копия
а
向
▁provided
ISBN
▁Still
uther
▁Non
reading
▁stands
Init
inand
VID
▁Gesellschaft
▁learning
▁Sozial
ografia
▁Bayer
▁Leb
enkins
▁appear
▁parts
weight
hspace
▁provider
amerikanischer
ump
▁Files
ског
▁feedback
ʼ
▁princi
по
adows
▁accident
▁гер
▁para
<0x21>
▁Nem
null
▁vál
▁стал
Str
ರ
▁jak
aucoup
itie
▁sa
▁Country
▁bud
▁Фо
Super
cted
$)
▁ceux
▁trav
▁crashes
▁гене
▁spell
▁wasn
▁San
▁!=
aque
Defaults
uky
▁až
cons
ogy
▁Begriffe
育
)^{-
sdl
Face
Sl
ikz
▁Howard
Bean
ল
picker
ција
AM
중
▁fab
▁brought
▁segunda
▁tienen
▁áll
Red
▁написа
вой
▁ocean
▁`{
High
▁thorough
riere
▁Gew
<0xD4>
▁categorie
▁orange
/:
▁sen
▁época
▁rela
');
estone
▁приня
▁devi
▁thé
리
Inf
▁lett
ativ
▁Tru
)?
▁пор
lay
▁Aber
▁Emma
▁retour
ties
▁Louis
▁field
▁talking
ités
▁AND
▁primeiro
▁Krieg
empor
▁Marvel
▁Syn
дель
ви
▁Boot
▁blog
▁около
▁prü
与
▁typeof
itten
▁Ras
aly
anch
gun
decl
vé
▁rés
alin
ново
▁salv
ván
▁ehemaligen
Aus
Flags
пута
▁Orts
че
lax
érique
▁instantly
▁Hit
▁Fu
▁deve
▁didn
▁Mexico
▁kilometres
(['
▁méd
{$
▁politics
▁zaw
과
elor
▁titles
▁ию
交
▁ios
▁driver
▁entirely
▁Ж
▁extensive
老
▁SE
▁Tommy
▁Pf
▁conditional
▁members
pon
▁interior
▁prison
ова
кры
ā
kappa
<0x48>
zung
esség
▁farther
demo
▁unterschied
▁grow
Setup
▁Osten
▁cred
лосо
abi
iczn
agi
▁sb
ových
▁który
cope
▁lungo
евич
▁сы
chant
▁Studios
▁orb
ły
Ґ
▁TCP
▁crash
▁Nobel
lage
itle
(|
▁(@
▁completed
▁dolor
<0x25>
dag
▁того
▁operator
▁pierws
adamente
▁enough
▁Universidad
ename
profile
нами
‹
▁PHP
▁Harris
▁boot
ждения
ння
Common
▁",
▁Coupe
après
anges
у
▁další
eties
quent
<0x16>
ent
▁Added
inds
▁actually
▁its
▁Then
.--
▁cone
CES
▁ges
▁Folge
orden
);`
▁▁▁▁▁▁▁▁▁
geg
▁Свя
▁username
Optional
▁Unfortunately
▁sig
▁comfortable
▁divent
,\,
reate
Wikispecies
ariat
obe
╔
▁span
egu
iration
vue
рь
▁aan
▁дво
▁row
▁br
▁мно
▁implicitly
▁book
▁kont
alis
▁linker
▁stream
cra
▁Rey
▁lung
▁projection
▁листопада
▁Gh
▁Origin
▁показа
▁сер
С
▁pró
▁Intent
▁carrière
ове
Var
▁without
▁perhaps
長
Python
wand
added
citet
gan
න
▁Wies
father
ibus
▁Note
▁genre
▁World
▁posterior
▁sym
SD
▁Miami
<0x95>
cookie
▁discovery
▁lik
▁difference
anted
▁mou
▁subsets
▁-->
eau
▁minutes
▁Railway
▁considered
Su
rael
▁лю
▁individually
icane
▁Dis
дий
enst
▁roughly
èmes
ffen
▁Newton
▁Elle
Resource
▁хра
▁pain
▁pris
orphism
ха
гово
List
ham
▁streets
▁Belle
▁droite
▁Margaret
ulation
▁patients
ond
uerto
▁bird
pk
▁eingesetzt
▁sci
▁há
▁courage
gow
▁weg
perties
кур
äch
▁diag
▁cabe
ável
▁#{
▁gener
‌
compose
enci
▁Simple
LE
memory
▁Singh
▁chapter
Sch
multirow
▁elimin
account
ане
▁goal
▁itself
▁impact
▁simplest
▁az
ier
▁];
▁Jahren
▁holes
Rows
numer
omini
▁▁▁▁▁▁▁▁▁▁▁▁
merce
▁Quellen
hape
▁differ
▁versus
分
si
▁Inter
▁amerik
кта
▁RA
▁mirror
▁Références
▁част
▁builder
лази
Psi
ภ
▁Cinema
▁WITH
don
ators
▁bon
▁teatro
▁surprising
ському
irtual
STAT
▁exception
▁geht
▁heter
▁plans
▁народ
']);
▁cole
▁dealing
▁@"
agues
▁Active
▁toward
▁составе
▁твор
▁tools
andal
bs
▁Education
lab
▁readable
}}=
exe
mad
-.
▁Hot
▁nä
onomy
<0x65>
das
жение
▁reprodu
nest
▁Tri
▁Britain
▁teil
▁Ч
ance
quia
emp
Configuration
▁fict
出
▁qualified
Rot
лли
linewidth
▁Kü
▁Verl
ellett
inton
▁television
▁AF
▁Dick
aban
Ά
Pos
▁Activity
▁cc
local
▁premier
▁extra
ellig
ync
▁Menu
▁insgesamt
▁Мо
Eng
ic
▁bien
▁tel
Uni
▁bataille
宮
ficos
йм
culo
eh
▁Bian
AndroidRuntime
anka
▁mysq
ennis
▁bands
▁México
▁fu
op
▁politician
▁ofic
▁учи
jahr
▁Pse
dfrac
WM
emi
imb
Azure
▁kn
<0xA5>
▁has
▁een
ez
▁likely
▁Pattern
▁Commander
umbled
лан
▁follow
FT
amental
^-
▁sua
▁Ба
_"
пор
▁жен
▁locations
íz
▁Пар
▁Владимир
▁Should
▁mand
▁Ar
HI
cido
alling
▁blank
▁зада
пода
▁launched
▁об
▁Factory
▁він
^{+
apping
attend
▁priority
▁Fail
▁pří
idel
imos
érieur
¼
▁designated
Numbers
lie
bin
ця
excel
▁Step
▁setTimeout
安
▁Thomas
nav
Min
▁ble
al
pay
zel
▁relate
უ
▁органи
▁polygon
신
▁humans
▁kr
▁hex
ICATION
prise
╗
PA
▁женщи
emptyset
▁kdy
review
▁Assume
▁Led
▁manual
▁qu
▁series
Form
San
▁plane
alle
▁Ej
▁run
▁folgender
i
▁russ
▁Б
▁mother
elling
▁FK
▁insc
▁Wikip
Dist
▁equilib
idi
▁detected
ky
▁assumption
▁Biografia
)=
活
RGB
▁remove
▁morph
orus
ieves
▁Aust
▁dynamically
ာ
lt
▁Following
environment
Your
ector
нец
트
oint
▁Alert
NAME
▁команду
aes
łów
▁chamber
▁ell
▁demande
▁questo
▁encryption
try
引
▁Verd
▁injury
▁mut
▁roi
Keys
▁human
好
CODE
emas
▁spo
▁occasions
;
R
▁Agency
▁Reading
▁begun
ел
frastr
▁national
:}
ermann
off
▁['
▁работал
▁conclude
▁hanno
oso
iens
method
nal
▁Poz
▁accord
▁deutsche
AA
bp
cp
▁beam
áció
▁eller
▁Stef
Delete
▁measurements
нал
▁NBA
eds
headers
▁DateTime
gs
arca
than
itaine
datei
เ
Enabled
▁striking
▁свя
▁send
ció
▁Mu
▁voll
▁releases
MAN
▁cond
▁Dieser
ұ
yed
▁headquarters
▁preserved
layer
▁sun
▁warnings
ighter
notation
sq
▁BEGIN
avas
▁that
oreign
вы
▁ö
**
~~
▁Sad
Drawable
▁Olímp
bf
▁Typ
annon
teger
▁kró
▁susp
▁Statist
ometimes
мест
[-
▁wr
▁октября
▁AG
▁ST
▁efficiently
▁From
Definition
gegeben
▁variant
▁sensitive
Node
▁Bere
▁fünf
RS
▁sounds
▁stuff
stor
▁communicate
CLA
rong
▁Entwicklung
yect
Ə
LayoutInflater
▁Rudolf
▁horror
▁Према
▁justify
▁région
äsident
▁була
▁ни
пре
Master
ско
ո
ע
Len
▁bold
▁veg
resh
)\)
Fact
▁aux
▁Init
外
▁сра
▁möglich
▁anxious
▁Columbia
▁palab
▁whom
nell
/
nosti
ським
▁UPDATE
▁начале
✔
App
▁Message
▁connecting
коли
▁Check
ше
▁Serial
OS
schule
▁conver
<0x39>
ходить
Mod
▁style
▁corresponding
ás
λ
rown
▁emission
▁Amt
▁grew
▁tracking
▁Mon
▁Dam
▁politique
ioni
rror
▁Item
▁WorldCat
▁minimal
▁bec
arias
▁Raw
▁Spider
▁bras
▁mainten
▁à
▁као
▁geg
="<?
▁wechsel
▁altogether
▁образова
rie
ân
▁functionality
B
▁essential
agnost
áss
▁reci
oded
▁peak
▁around
‒
assets
▁"${
▁earlier
▁Div
▁реги
▁sto
ൽ
лі
pois
/>
in
стову
▁Mediter
▁Bul
▁шта
ena
ender
▁Teatro
interval
┌
▁kick
ू
craft
▁repeating
Mart
▁Lux
▁Quart
▁ham
Extensions
utors
▁экс
▁países
Hold
▁enjoyed
≡
▁ему
▁Data
▁dla
users
фо
▁Craig
dup
▁Short
attung
▁alias
▁amount
▁soort
ким
▁recommend
▁achieve
▁spoken
grand
цион
However
▁moth
phony
▁Czech
<0x11>
idden
‖
▁ле
▁pit
▁dear
▁fal
idea
▁hina
$};
▁Ме
ream
官
▁form
▁vess
falls
fasst
]];
▁XXX
▁cover
▁Sprache
▁tiempo
▁Chamber
▁ 
▁Attribute
▁notice
▁parish
Security
ulate
▁cre
engl
▁kallaste
▁fon
▁Australian
eline
▁jeden
▁maintain
▁instance
ichts
áct
▁calculated
▁Tir
lou
yar
▁Duc
▁gates
▁Pero
irse
▁giving
▁Pack
▁upp
▁Ajax
▁Zob
▁regia
▁ath
會
▁;;
▁бро
totype
▁Marie
▁Bishop
▁identity
▁худо
▁Mall
IN
▁Mannschaft
▁Afghan
▁réseau
switch
▁dici
▁ik
▁literary
▁highest
ams
usement
ag
▁зан
stringify
cred
Big
ユ
▁saint
abling
lock
▁mij
atory
could
▁clean
4
ub
ook
▁Using
▁houses
Russ
▁две
aires
},\
▁configure
дри
ி
fang
video
iev
▁Bol
nm
▁died
dob
▁thereby
ност
▁Geographic
▁Chr
▁FC
EX
▁Lebens
▁cabinet
`.`
any
▁listen
ily
parseInt
quip
▁februari
▁clause
temper
}\,\
▁magn
▁standing
▁ново
▁avaient
ensure
witz
▁sli
▁radial
({\
▁heat
▁indent
pm
▁benefits
verkehr
ོ
▁Ц
完
ё
team
ientes
▁territorio
lication
▁То
Interceptor
over
▁Hon
▁commands
▁Lond
▁élect
▁Кара
oding
▁Aven
▁Tas
▁three
▁migration
Pager
▁проис
▁Ba
▁Cons
rain
anto
clam
iance
evalu
abol
▁gioc
▁draft
▁Jean
آ
ributed
Lo
▁searches
▁possibilities
▁Beach
schap
▁jug
▁roles
▁seis
шта
iali
ред
rach
▁implicit
▁théâtre
▁forte
▁conced
anz
ischer
classes
VS
vity
▁Carlo
bu
▁SF
Operator
azione
equation
idd
ierten
issement
ansas
design
not
unc
▁<%=
▁soon
pg
▁entferne
▁hommes
▁війсь
▁dam
pis
▁Hugo
▁analyt
wards
▁occ
npm
тик
irm
▁Grant
platform
▁avoir
▁när
▁question
▁Baseball
▁Дру
}{
сподар
▁Pacific
▁ab
arte
▁roman
符
▁functions
rained
ści
▁Western
ouwd
▁serious
▁Hill
▁quien
▁success
uno
Encoding
aye
▁details
▁oil
alk
стри
▁Chris
endre
тил
crit
atar
ạ
xico
▁interaction
UIImage
mande
umeric
фи
▁Fe
▁computed
▁nobles
irection
▁Та
III
▁rende
similar
▁driven
ftp
▁Seit
་
▁hope
▁Май
Comment
Illustration
▁agents
hook
河
▁intitul
▁char
ting
jed
otta
▁atmos
▁javax
FILE
ígen
▁Writ
▁dd
кие
▁mo
▁Lis
ześ
▁Се
\|_{
гла
Michael
ause
▁peer
▁propi
▁Mountain
▁возмож
attice
fact
▁svil
Visual
ième
ós
▁Sou
▁allem
▁bell
▁feels
öll
dir
▁GT
▁анти
stack
间
accept
ła
▁living
▁t
▁Fahr
▁besch
▁`[
▁levels
▁Change
▁Gö
!--
▁sc
uments
Sur
▁Ни
▁cattle
▁expla
ньо
▁evangel
▁iframe
physics
▁ital
▁Lu
Parse
blem
,...,
▁incorrectly
tab
<0xF4>
="{
ppe
xi
̪
▁tierra
draw
arel
▁suffered
가
Parent
义
▁dus
сов
зем
чина
stwo
▁development
▁elementary
▁ucz
▁Станов
▁cré
▁"#
record
강
acco
▁purposes
uß
▁envi
▁obtain
IT
dw
▁Perform
▁approaches
▁proposition
▁Ost
▁doubt
WE
▁putting
▁shorter
enk
▁vil
кор
мент
▁"{
ał
▁invån
▁Club
eling
▁custom
}(\
<0x53>
▁drama
▁math
vod
▁sich
tons
ifying
あ
재
▁#(
PS
▁operation
TY
ingu
vu
▁able
▁nicely
ient
▁sierpnia
and
▁zona
▁arte
▁Whit
▁powerful
ographic
▁loops
▁waters
ɹ
▁Colorado
▁Common
autore
∫
quality
ania
▁ced
▁lattice
▁dział
bm
▁Renaissance
▁clubs
erea
mat
ng
▁stell
▁зву
нат
▁Comun
▁doit
▁precis
dart
AtIndexPath
ules
cache
hash
objects
urm
▁whether
▁wie
▁wohl
pod
▁alle
▁Verb
▁Mir
▁comple
Autom
▁respond
External
▁Controller
det
▁athlet
xspace
Age
восто
▁David
TER
▁findViewById
▁sister
▁td
▁zur
▁flight
█
Infl
▁problem
太
abile
atoire
fin
kal
դ
▁grab
ibm
▁thoroughly
▁guest
▁XII
free
▁следу
kap
вен
izers
▁Notre
▁Sof
▁VALUES
azy
▁cheap
▁са
▁friends
Zone
<0x31>
jön
original
▁Bad
店
rypted
▁британ
⁶
redu
▁'<
▁Ign
▁disponible
▁Any
▁Campeonato
эн
▁rész
₂
RO
▁Plot
▁destination
▁existe
eten
▁content
▁ř
ög
BY
▁ERR
▁ná
тели
items
entlicht
▁proposal
gemeinde
ners
ología
▁Après
atten
[{
igung
embros
▁D
▁Pakistan
▁flav
BE
Constra
ienst
ubble
▁nagy
odia
θ
▁Bac
ристи
лет
▁Bet
▁leads
▁nil
ayout
▁Bre
▁sus
▁September
rut
▁VIAF
▁nearby
기
Team
▁heading
▁anim
▁Tová
▁поча
▁underarter
erdings
▁mapping
endet
((
UMN
vidia
▁would
▁дан
dess
ˌ
лиза
▁améric
LECT
▁diferentes
CHAR
cen
▁ordered
▁који
▁demselben
▁Script
▁Ze
<0x56>
rant
▁satisfy
▁sib
Command
Η
▁configured
>{
▁Aut
▁Events
▁Schwar
▁opere
▁spr
▁Laur
▁tell
application
сини
▁FR
▁réal
hs
info
▁about
▁chante
▁Lock
ются
`?
▁variation
▁Same
▁già
handler
▁augusti
timeout
▁Met
▁credit
=$
▁restrict
#{
▁долж
▁serves
▁Stage
typename
▁Furthermore
ci
▁convex
osition
▁canonical
▁Model
▁inglese
▁God
━
▁Mey
▁pitt
▁termine
mathscr
unct
zten
▁dece
ctx
▁bol
extract
▁Ó
ouse
楽
'>
ROM
To
cala
ral
▁Iss
▁cousin
▁deeper
▁instruct
▁quali
接
ྱ
Models
▁bulk
▁Keep
▁prv
▁natur
▁scenes
Input
ark
дь
ктора
▁Barbara
œuv
▁varied
▁zag
▁gew
▁организа
runtime
pecies
▁waiting
▁respect
signal
▁Tür
ὶ
†
vote
▁MC
▁Bened
▁*/
king
stylesheet
▁Familie
ział
▁Andreas
▁europé
▁drug
iously
▁papers
upload
Bind
üller
ба
никами
▁Confeder
▁Mission
▁dread
▁ак
▁essentially
▁contiene
▁rev
▁Gab
▁later
▁views
▁Fiche
lambda
lemma
▁déc
Weight
▁Center
'(
onsieur
adre
▁Stim
▁niet
▁syst
구
▁asi
licher
amour
▁Hand
▁especie
Wel
raine
čen
Rel
▁Nicola
▁ta
▁arranged
▁seus
▁horses
▁pointers
дов
▁maximal
▁Link
▁stata
▁зе
▁song
▁fact
▁Gordon
▁quiet
▁targets
▁thought
▁surg
prowad
ého
▁komm
urer
▁deploy
leveland
▁accur
зу
omm
OD
aram
öffentlich
▁Bas
▁fel
ogram
▁Institution
▁elem
▁suo
▁veröff
cdnjs
▁Luther
▁équipes
▁Dru
▁CGFloat
▁Final
▁süd
発
:=
eto
uits
onia
▁Prim
returns
▁suf
▁tracks
▁completely
backend
县
▁periods
oked
▁estaba
icher
▁distingu
▁had
iday
bü
andenburg
박
burgh
stood
edic
▁deviation
▁till
actic
▁coverage
▁haut
<0x43>
uni
zett
言
語
尔
▁destruction
▁er
▁чо
▁Names
▁SV
▁gef
GridView
▁classe
dz
江
Í
▁algorithm
quantity
▁asked
▁constraints
▁contin
▁housing
▁patch
TR
▁против
▁состоя
‡
边
▁společ
▁allerdings
ług
▁Gl
▁plugins
▁dazu
坂
▁Anim
▁giov
START
▁граф
▁Fle
▁Gian
ází
▁optim
paper
№
ität
Vis
ὐ
ends
raise
▁Option
xx
▁Pod
▁The
Vari
methods
▁Wagner
▁naming
▁zna
द
▁время
ferrer
важа
мец
ょ
omány
▁Koch
▁Q
▁camb
université
how
▁Iowa
.:
("/
ática
▁obviously
▁blob
aju
▁și
руп
▁thous
uan
▁`|
▁conjunto
▁affairs
▁préc
ц
▁retired
ato
▁Ts
▁Ress
▁Dav
▁надмор
)[
▁stark
▁fitted
▁transport
▁alap
▁pare
▁ling
<0xE6>
▁males
▁Now
ostał
駅
▁NAME
▁через
▁fought
▁projekt
▁wanted
status
▁rescue
IA
igan
Top
▁url
▁operations
▁NE
▁Ph
jd
дол
tha
гре
MR
▁Area
▁gained
▁doesnt
.....
▁gouvernement
▁höch
▁yeux
▁Battle
лася
▁Train
დ
nown
▁probable
arod
':'
ún
▁fir
¹
став
Convert
▁желез
▁lang
▁а
ACT
rid
▁intros
Name
cles
heet
graphics
▁jest
▁advis
▁ww
ought
▁science
▁pause
gress
▁Why
aussian
▁Runtime
▁т
▁Ál
añ
ml
▁templates
▁sie
▁Cha
▁balls
Try
▁Atlantic
▁clearer
raj
▁Kult
▁performed
▁tour
ціаль
riften
▁fil
▁}).
richt
amilton
▁programme
▁Gün
Y
Loop
hmen
zess
structure
▁cort
Will
ethod
▁grand
menu
left
▁du
fre
präsident
reck
▁führt
▁law
▁focus
Environment
ued
▁Brit
Else
oom
yc
▁classical
▁overwrite
▁vertices
anna
▁solit
▁assistance
▁Tout
nement
<0x7D>
)».
fl
iada
way
▁Parad
elli
Uri
<0xD9>
eding
orgen
천
▁Alice
кре
▁pouvoir
chts
Group
▁individ
▁possibility
▁cí
ере
чка
▁зем
ү
agit
points
▁Cet
▁reverse
▁silent
▁listopada
$.
▁stepped
alt
▁автомо
persistence
▁Ком
안
▁Songs
Color
nou
▁отме
master
▁easily
▁duplicate
ström
▁pack
documentclass
Js
charge
▁Anyone
ah
ി
▁півден
equals
urrency
▁Get
テ
Feed
▁prediction
▁directed
callback
▁trac
annot
ISO
req
ând
рода
▁Dream
▁acquaint
▁enfants
▁eliminate
▁Sib
iders
▁Parte
▁littérature
▁job
ImageView
▁Var
▁szeptember
árt
▁капи
ulaire
Ма
漢
omial
хар
licht
▁integer
▁jou
▁mounted
xml
▁tu
entity
▁cel
multicolumn
нии
▁vul
▁Company
▁colored
\{\
▁numbers
▁sacred
▁Ped
▁Resources
▁Run
sterreich
clos
▁Gol
▁incomplete
▁transactions
▁sql
▁Rein
▁dri
▁Int
▁Cult
▁Robinson
tocol
▁conven
▁near
ló
contrib
anja
dorf
})\
業
Position
berga
Proof
▁Emp
ously
apis
▁Half
▁andere

▁individuals
▁München
ABC
près
▁const
▁Taiwan
final
佐
▁разви
▁кри
multip
iendo
▁companion
▁domin
necess
▁Valley
▁участи
▁mate
lica
lave
▁emails
antly
phr
▁меди
▁}\
epsilon
▁...)
service
▁Распо
baar
sci
▁dah
ances
warn
▁further
▁formal
iella
posed
▁worked
сти
riv
▁mostly
▁communic
▁Ні
▁extens
<0x88>
▁Meta
▁AL
▁августа
▁nu
arters
)'
фр
äng
▁Auto
į
▁captain
ym
Cho
RAY
▁Ralph
▁touched
obierno
▁beginning
Windows
SIZE
ious
▁års
▁Пів
nih
▁sale
dataset
software
ɛ
▁beneath
▁exper
<!--
angers
detail
▁pal
▁manipulate
iest
sha
▁Memory
../
▁Ú
chr
zu
专
gel
▁Pia
ме
▁Bob
▁där
ắ
Ş
▁Component
sm
▁els
ows
ients
▁htt
▁supports
have
".
filename
vel
▁females
▁osób
issent
istro
▁Calcul
Buffer
▁POST
▁chars
▁besta
▁ont
▁developed
меня
н
ン
▁stuck
ago
agnostic
▁segundo
▁Villa
ང
▁vég
_*
▁objects
iej
▁subgroup
oria
▁Pay
▁items
▁od
cell
schen
▁esa
oun
▁Zür
▁compos
associ
mediate
▁trov
▁S
▁hi
Font
<0x4E>
▁настоя
朝
Remove
▁Cuando
`),
▁denoted
inda
ാ
▁Го
▁sondern
▁nue
sample
<0x1B>
кін
▁id
▁structure
container
atically
Receiver
Player
viously
表
My
▁стар
▁кор
arded
▁Creek
▁ti
▁supporting
stad
TT
<0xBA>
̀
рои
▁However
▁displays
▁naj
▁Hart
^*
react
яз
enth
▁viz
▁requested
Err
rif
▁mechanical
▁més
atti
▁argent
рови
Spring
uwe
▁XIV
▁musicale
注
▁pri
▁tussen
▁Wayne
EF
▁tennis
▁Mc
▁mark
็
oret
orious
icle
Text
▁tank
▁sought
▁simp
rho
▁?>
версите
ança
▁ogni
▁współ
ält
▁lum
чин
▁Scotland
▁диа
▁virtuel
▁sobre
玉
рами
CC
▁Media
ῆ
Serv
је
▁calcul
▁Fun
▁normally
월
ships
▁cave
qi
▁Young
▁Stad
▁channels
▁Property
▁Marcus
▁Además
ąpi
▁drove
uca
▁prot
рах
acle
▁насеља
cat
▁io
▁Bav
▁stick
▁":
▁bow
▁Despite
▁findet
▁sad
reb
▁membre
了
Conf
primary
▁haben
Draw
calcul
navbar
▁Marx
herr
▁`/
▁dimensional
▁Phill
idae
▁lab
▁toda
▁limitations
▁restricted
▁fruit
인
▁suggestions
▁Arbeits
▁strateg
her
éd
▁Men
▁rei
▁anonymous
iana
▁Oklahoma
ourt
▁Total
▁compress
▁successful
opacity
ḩ
▁Other
▁loaded
ници
änger
illaume
igkeiten
пени
▁Stack
▁kilom
▁Natur
ří
▁sit
̥
▁Cord
aused
▁wore
nat
▁Lee
▁voice
樹
Level
Me
encode
▁Sug
ല
▁Roy
▁too
|}{
▁formally
Col
‘
▁`%
Download
(...)
Lu
jk
lacht
rieb
private
jure
pher
ysis
▁Piet
▁NY
▁ост
uchte
nym
▁town
ків
▁constraint
itet
▁dust
arrison
Б
istra
▁Pu
▁height
▁western
zá
▁Swift
▁Islam
obb
▁quadr
▁Anyway
=`
▁Root
▁provision
▁ши
▁solar
▁Caval
Val
chem
inside
▁Update
▁Arizona
▁community
Sil
стр
▁Frau
▁cens
Cost
ilis
▁Sab
Invoke
валь
▁иг
forward
▁tema
▁III
▁automat
▁mundial
thers
▁Va
▁necessarily
▁Ook
oment
ktiv
▁занима
▁всех
▁Europ
▁bishop
watch
ਾ
時
pper
▁использу
▁Me
▁protocol
▁meteor
▁añ
▁closing
←
▁inglês
abgerufen
▁Р
联
▁первы
▁vers
oko
otion
▁circum
istrz
▁bounded
rás
eti
├
▁Beit
▁тому
beg
▁"/
▁Nas
▁над
виси
头
anden
▁Spect
ствен
▁Staat
rar
▁Alfred
▁Лю
ח
usk
▁el
▁WHEN
setAttribute
▁capacity
ждение
▁organ
▁sull
▁feature
біль
▁одной
▁inline
▁militare
_)
▁zurück
▁hid
▁confirm
图
клад
pio
▁Александр
▁friendship
ieben
attr
▁tutorials
▁Sec
ség
jours
▁spot
▁soup
▁pers
▁offices
burn
▁rejo
рак
our
▁Fir
▁`#
▁catt
ун
▁cur
<0x3F>
▁intellig
Trace
▁reserve
ética
▁adult
In
▁прове
▁weapons
ন
estig
▁baz
worker
▁télé
▁anom
▁искус
anging
▁typed
▁called
Fetch
▁Come
▁GUI
мати
▁Foo
▁Т
ester
policy
▁gir
на
▁alert
▁disapp
▁pivot
▁Dios
}$,
lev
eszt
Customer
зар
▁sy
temperaturen
_
▁superior
ają
▁кіль
][
▁Liens
ം
ma
▁Census
oker
後
---+
кет
▁Dak
icator
▁Guerre
endi
<0x72>
area
<0x60>
▁mis
▁Engine
cert
ི
▁runner
central
▁відо
▁по
湖
]$
▁Website
language
▁urban
▁Element
▁Again
▁virtual
)&
▁Ха
▁znaj
ock
üge
ître
▁Schutz
▁plate
▁saf
▁specifically
▁for
▁hast
▁show
▁NGC
▁Uk
ică
љашње
▁arbeit
itemize
conde
▁ident
etc
ash
perform
▁urb
iforn
▁Му
▁society
▁markup
iał
▁projet
▁губер
yer
▁ś
▁magistr
」
look
▁Toast
does
стру
▁Campion
▁Pascal
▁necess
▁polity
▁Esp
ustral
agua
▁Пре
AUT
▁weight
▁Also
sBy
hib
▁avec
▁Taylor
ró
anst
tx
▁carriage
ną
▁management
sieme
EL
▁Schl
мя
ボ
▁apt
initial
èg
▁fileName
));
▁employees
▁avait
Tag
▁devoted
ps
▁made
gebracht
▁сам
Ah
avascript
male
ruction
ANG
▁eigenvalues
<0x01>
äl
▁livres
OFF
▁nicht
▁allocation
Espagne
querySelector
xls
▁Cot
iw
▁libro
▁populate
▁secre
Make
save
ская
TC
acje
▁Gas
▁ż
▁pseud
<0x76>
▁wob
▁saw
▁страны
cribed
opol
ieve
▁claimed
▁dirty
▁frames
fx
●
лист
▁percentage
▁Like
derr
▁irregular
▁provinces
▁ге
그
▁margin
рой
▁nations
▁wenig
▁tears
licity
▁travaux
ère
▁grows
<0xAE>
▁general
▁Миха
T
▁tap
▁се
▁neuen
▁([
▁separation
▁experience
▁Пав
▁Avec
ASS
▁born
▁Mayor
▁convers
▁ft
▁poł
▁ade
▁LP
▁'')
)}
▁Canad
▁Une
▁Thom
Question
▁forty
is
.):
bild
di
Registry
Distance
Route
Handle
▁Case
▁dup
fab
▁diff
лим
lace
▁refuge
▁suffix
lais
»
▁Stockholm
▁explains
▁fleet
▁volunte
Updated
▁your
▁icons
бор
=
▁passes
цев
▁markers
▁actu
▁already
▁gall
цин
bey
skog
▁estudios
▁ca
ación
inners
zahl
ә
▁Academia
▁recovery
▁brackets
Pal
▁hiding
Right
▁among
▁purs
현
航
Hom
kę
▁hockey
ormal
▁Math
▁Storm
CP
Hidden
▁admit
▁docker
▁defining
▁aprile
▁killing
ientos
▁over
////
llaços
▁Plan
->{
▁Collect
▁macro
▁“
▁Latin
▁изда
Bag
niejs
^^
▁Vall
rice
▁`_
ánt
ід
spiel
▁Highway
▁zawod
Views
unix
▁vý
▁сот
arqu
result
▁Müller
▁Burg
▁designs
font
furt
▁Florence
▁LOG
▁Philosoph
▁incon
QU
人
▁curl
▁Affairs
▁świat

raft
▁leaders
etailed
▁più
essel
▁animated
հ
▁mov
ouc
▁Netherlands
▁conna
UITableView
▁block
adr
DN
▁attack
kern
####
json
▁machine
▁Да
▁losing
▁baron
▁trouve
inae
agen
endencia
▁Gill
▁learned
.](
▁requirement
▁miss
▁dead
▁Did
▁Abraham
▁acquired
▁Pi
▁Buen
▁count
▁mehrerer
▁ihr
rix
ἱ
sono
▁Pier
жива
▁mysqli
▁Сове
▁fle
cation
hens
▁desired
iende
▁dress
▁conversation
ltre
▁Dum
▁caratter
Speed
isp
offs
von
apat
▁modern
orithms
報
▁twelve
▁tod
▁'@
▁Agricult
▁Ide
itions
▁test
▁With
↓
pers
▁Rück
isting
▁myth
SION
eval
▁Arten
▁Sachsen
▁erreichte
▁Amy
‬
Ý
browser
▁Niem
▁square
DK
▁Пу
▁increment
Middle
рина
Mont
包
▁Excel
ris
▁pygame
dagger
▁Савезне
,.
▁cars
▁фамили
▁Bis
oking
▁encounter
ampa
▁Kost
▁cancer
ędz
▁receiving
▁mn
тися
▁dru
▁коман
▁finit
omena
aszt
пли
ပ
lä
▁facts
direction
š
▁supply
None
▁solo
▁alb
▁asympt
▁vor
▁niem
.$$
тором
▁reliable
正
称
▁then
ish
\).
vt
▁Whe
▁fired
▁evidently
oden
пис
builder
ência
▁Lub
▁Ult
▁Voll
▁convention
Search
▁Haupt
▁Distribution
hand
▁Terry
▁dtype
영
ět
шь
▁Kon
▁cosa
▁además
▁extern
ouve
ologne
▁Metal
lices
▁zwischen
oter
fg
cord
ura
▁Jacob
▁etwa
slow
▁Him
▁Way
▁originale
nego
ennen
ската
none
▁downloaded
"/>
▁birth
▁viewed
▁prisoner
▁tags
nth
<0x5C>
▁finding
ified
▁Gand
El
▁defect
▁any
unsigned
asset
▁negro
▁model
того
fil
onk
▁branch
▁Form
▁unity
▁About
▁visual
▁сте
öd
war
<0xDA>
EQ
heten
▁Soc
▁diss
ща
▁Master
▁food
iene
yg
▁trouv
neum
▁perí
,$
▁simultane
▁wants
▁Cor
шен
▁Wal
▁Lloyd
blogs
▁Zone
▁kW
▁overlap
▁sob
▁CHAR
▁Gé
▁честь
▁Sho
zyk
oce
▁Див
rw
atos
▁Bright
И
illing
▁що
▁another
थ
bor
▁regardless
▁max
kc
t
ush
▁carrying
<0x8F>
nis
▁Color
bare
init
▁forum
▁Government
acker
ску
кої
strap
ミ
▁section
oto
▁varias
hein
▁Чем
▁reform
It
reib
▁Lin
▁Vé
▁vorg
▁Library
▁perman
▁Vo
移
▁spher
рин
▁numero
▁Kar
ць
▁\$
▁caught
{{\
ôle
▁plug
brit
▁aspects
▁keeps
ště
▁Ils
▁cities
inn
yes
▁Bot
▁rename
sob
appy
è
▁surrounded
âce
ницы
▁momento
echo
▁destru
pipe
▁zweiten
ology
▁cache
Tra
◄
▁janu
▁Bild
Password
守
uniform
\|
▁hospital
>()
Allemagne
hip
studio
▁cas
▁compar
▁declare
▁två
▁thy
Arguments
▁representation
erk
▁Albert
▁ar
ках
▁Graph
Chart
▁municipality
sh
answer
▁Arte
▁Act
▁dispute
▁bid
XY
но
nb
leid
▁Ant
zioni
▁juin
▁board
ventory
current
Template
▁Ciudad
▁tend
▁Bedeut
pty
iii
yo
▁sales
▁Path
product
▁default
▁},
чество
iennent
▁versch
▁Bulg
blah
olar
Append
DU
▁gest
icious
▁Society
NN
▁soc
allen
aste
osing
ciu
▁помо
]+
▁oft
▁incons
rf
Gesture
▁ami
▁conj
ек
“,
▁Retrieved
unless
Ca
▁European
ющий
ifiable
kre
Ṭ
enberg
Usage
Delta
ücke
▁gelang
youtube
▁if
▁роль
front
едера
Binding
bráz
▁жи
ката
May
Bl
sd
umn
flat
dam
▁deser
ént
▁Ф
ége
▁Y
▁Datenbank
ue
▁servir
▁CD
▁finan
▁Kob
▁ease
▁organiz
englisch
ifecycle
System
х
ритор
unks
▁SR
antry
lando
▁simplify
▁hyd
.«
▁Neg
▁displaying
▁ně
▁INFO
etro
DataFrame
▁(/
":{"
cza
▁Southern
▁Jas
ätten
▁Orth
▁mayor
▁prin
▁Roman
▁easiest
ția
WA
隆
quency
▁today
inue
▁praw
▁dem
▁Уи
▁Lincoln
平
-}
▁declaration
▁recognize
▁shown
CL
prom
▁XX
▁empresa
電
)$
ligt
overy
rà
∩
▁Jose
▁bild
▁clear
▁Musée
ǒ
ently
ateur
ا
▁Nil
▁bitter
▁esempio
żyn
▁Alexander
▁personas
▁divis
▁Nic
▁gradually
量
▁Congo
▁PMID
▁Tob
,-
▁portal
▁Belgique
▁suspect
▁station
zan
▁reasoning
Msg
aches
levant
▁лютого
<0x8E>
чі
wei
ńskim
▁lire
▁muito
Cent
xmlns
▁behaviour
▁\]
▁support
mp
▁OUT
▁information
▁poder
▁sensor
izer
~/
▁király
+$
▁stations
技
空
alla
▁calling
▁Также
Pattern
tat
▁jap
/$
▁types
▁Lors
▁lets
▁successfully
်
▁Enlaces
▁stays
▁клуб
iah
führt
▁Garc
▁fatal
▁np
redirect
▁Gregory
▁Swiss
▁нов
▁Vid
trl
▁answered
ipedia
ably
▁São
ハ
uropa
az
raint
тей
▁dated
ivi
▁winter
кви
▁RO
ū
Mask
▁compile
▁Museo
名
▁tät
▁Africa
▁help
▁Matrix
공
▁rok
▁succession
endent
ensis
▁år
▁призна
▁operating
▁substant
Microsoft
Observer
ît
ри
▁ganz
▁Ви
▁За
^{\
▁Steve
▁deprecated
rå
▁Dog
ava
▁Censo
▁goods
etzt
hez
▁Meanwhile
doFilter
edy
▁contribute
▁Lic
▁Independ
ográ
▁jav
▁Terminal
▁fro
▁Hor
▁modules
ُ
▁Си
▁Bitmap
▁analyze
adem
▁sympath
▁len
asticsearch
▁though
▁kitchen
bounded
▁profesor
▁Cort
ових
óg
▁рос
',
▁accus
▁ainsi
©
той
osti
овой
▁arbitrary
▁Hö
fu
scriptsize
ה
▁Second
▁Meter
conom
▁includes
▁fa
eca
▁observations
▁Alg
egeben
rs
▁arc
▁response
▁readily
▁UTF
ultats

▁told
sequence
▁Stevens
▁Chap
▁cuer
kan
▁війни
NE
▁DNS
▁het
▁чолові
nr
iel
nant
▁Got
▁uri
hov
▁Arts
▁высо
<0xE0>
distance
nog
ify
igos
▁groups
▁eight
▁option
▁rest
ielt
▁Harold
▁trop
▁пря
incipal
▁diagonal
▁лет
▁Pac
▁Ele
▁воло
ĝ
public
Hrsg
▁reported
▁gradle
▁errichtet
arning
clojure
▁Archive
▁сред
▁Jimmy
▁conflicts
▁complicated
SOUR
Controller
▁Рес
ools
▁Ст
jamin
eries
▁circle
river
ucture
<0x70>
▁until
bir
▁impression
▁Nice
▁girl
▁longitud
▁{"
Ori
Executor
focus
▁interact
▁сп
vin
▁jej
Take
cze
▁eat
▁ober
▁Са
Select
▁Adri
Create
Documents
Google
▁nave
▁dance
,,
ker
▁националь
respond
⁰
▁declared
ová
▁чи
cion
Push
▁Gene
aya
▁gang
<0xC5>
▁hun
▁Lower
▁го
краї
▁commits
▁Dat
▁große
lb
▁česk
▁esto
шёл
ilen
▁Lang
源
▁Kilometer
▁соответ
isen
)$-
▁про
riel
meister
dec
▁IB
▁residents
▁интер
<0x27>
ionale
$-
▁Rap
▁directory
查
▁seized
ент
ց
▁difer
▁contains
▁species
▁hundreds
ante
▁interven
⊆
▁lle
▁бан
▁enable
▁оп
▁Html
owski
achen
▁пись
hé
aved
▁prepared
java
▁Raf
▁composed
▁construct
▁songs
▁shr
aters
▁Express
▁languages
emos
inner
лок
länd
▁Mosk
▁ratings
ША
▁$[
<0x9D>
auch
▁Gru
Add
▁extend
recht
▁sake
ồ
▁origen
odon
▁estat
以
▁Fish
ギ
▁steht
▁Andrew
▁broadcast
▁sare
HT
servlet
domin
iven
▁Think
▁reached
飛
-\
gericht
▁banda
ách
merge
▁Seb
ROP
ръ
▁({
▁Rég
ck
лы
▁awarded
iny
▁kwam
▁Jos
Find
▁totale
<0xB2>
▁himself
inas
mitt
▁submitted
▁Colleg
グ
▁convert
▁logic
ras
props
▁weak
▁россий
▁Chapter
▁pén
udent
MD
té
▁már
▁Represent
╩
pes
▁Wend
catalog
▁figlio
sql
意
▁Mann
wagen
▁Queens
fel
▁Sloven
▁темпера
প
вропей
▁он
▁comma
▁Palest
▁woods
FIX
▁visitors
gb
▁reconoc
unächst
but
<0xE8>
Height
Lin
fragment
спорт
Machine
▁databases
¬
zeich
Export
▁phys
isation
nio
rière
▁amazon
▁fung
▁funkc
▁invalid
INSERT
laus
▁She
ഷ
▁Gust
▁beautiful
▁chap
康
Throw
▁Work
cue
Φ
ano
ME
▁#>
мет
▀
▁nécessaire
берг
▁vec
▁Dynamic
jąc
▁At
ĉ
öst
sun
▁zewnętrzne
Attributes
▁amateur
abil
cancel
▁\[\
ogether
yml
yw
amar
meck
ordon
ución
↔
ík
▁based
parts
▁dynamic
▁percent
▁resp
UG
▁PDF
▁circul
writ
Der
▁infer
▁deven
▁districts
▁krit
resource
се
▁zap
wald
▁fr
ль
▁Living
▁Garden
TX
▁población
▁supported
clean
RY
▁abol
▁Amsterdam
▁PO
▁entre
▁cached
▁interpretation
Orientation
ést
▁workflow
nap
▁equival
▁fotograf
▁mount
▁Descri
▁bread
▁differently
P
ло
▁Ла
▁read
▁listened
▁House
enschapp
▁inser
▁product
abor
ulk
▁Nor
istique
скому
bye
Pack
operator
▁tijd
ouses
reland
▁Question
▁won
▁cell
▁gentlemen
cco
dan
▁przez
麻
ì
▁soci
▁Govern
jor
▁odkazy
rebbe
прави
▁Lib
▁coding
ni
abet
col
▁borders
▁dedic
▁Kath
▁}`
무
▁Bil
▁pan
▁verify
▁Aleks
ǐ
∃
▁Ukraine
▁referencing
щих
▁gift
▁peint
▁генерал
Shift
zę
визи
▁independence
ズ
▁международ
umber
ckså
▁Princess
▁Hann
▁theoret
Dispatcher
State
con
▁hours
▁éc
▁metropol
Desktop
▁rout
with
ugs
▁waar
Example
▁Fernseh
aded
▁workers
▁boundary
▁pak
rän
▁Référence
▁meist
urus
▁glo
▁frente
▁{},
▁пода
antic
▁ран
рела
cla
kw
▁lots
保
▁Institute
[_
▁Issue
icing
▁geb
支
fers
▁зі
managed
ska
widget
▁scra
Ḥ
чної
skih
▁Pic
IZ
▁console
OnClickListener
▁»
▁uns
nov
ények
▁woj
▁tut
▁gap
▁Lev
van
occ
▁amounts
▁ages
▁especially
▁there
▁Pérez
IB
▁Einzelnachweise
▁claim
▁consegu
▁films
▁teor
lywood
▁chain
Rec
▁tuvo
▁року
▁mens
admin
▁full
▁Edit
чних
▁Ent
▁Ama
▁são
Be
asa
▁syn
▁Edward
▁société
▁qued
▁stroke
▁apro
▁mez
VD
ienen
owy
▁ro
▁Fa
▁franc
▁Straßen
▁Алек
▁cig
рус
타
微
Days
军
▁INSERT
▁paragraph
▁War
Controls
Footnote
▁Bass
▁val
CA
ording
▁Mit
▁beta
▁Language
▁compiling
▁Burn
▁Джерела
uset
▁demon
className
ahl
Х
tableView
estre
隊
▁Journal
▁листо
‑
because
те
ierz
ots
ulle
▁average
▁Out
cience
▁generator
▁kör
▁nic
▁пробле
▁liber
Equ
encer
▁Based
▁using
▸
▁fit
By
ił
▁Cont
▁Cz
▁wurde
M
rn
▁bucket
ño
why
▁occur
estaur
ʹ
▁тру
ête
и
▁Sid
irst
Ob
hlen
expand
icole
▁Mih
▁sunt
сла
▁(:
lessly
▁katol
jon
▁фами
\":
``
zs
番
>",
▁recip
▁Byte
Loading
▁possible
▁initialize
shift
ля
▁calciatore
▁exp
▁Broadway
cia
▁CT
▁convinced
▁partido
oca
hire
▁Georg
▁équipe
▁{\
▁Х
之
▁Background
Comp
wor
▁tö
<>();
ется
▁Primera
▁ly
python
▁заво
▁rotation
lished
,
▁конце
<0xE1>
ení
tail
elenium
▁emple
▁schemes
▁amp
町
hell
ój
▁directories
✓
ismo
angel
ORM
Products
initely
ظ
ƒ
▁Phoenix
▁choices
sce
іс
%
▁mysql
intent
▁septembre
▁institutions
▁Animal
max
rag
▁города
▁mat
Pixel
▁disag
horn
編
Also
{(
▁cost
▁стра
▁delayed
mi
▁kindly
▁solve
▁naar
SUM
achim
near
GA
fen
▁Napoli
▁bezeichneter
uncia
▁Del
opter
双
▁dí
ského
Log
ط
UT
▁accum
gemein
▁Indones
awk
icia
rive
éta
▁absent
▁città
▁muit
張
▁expos
AN
ajes
▁Mario
▁recomm
▁важ
δ
е
▁jamais
ґ
▁Mah
▁traces
itution
▁necessary
ywna
▁год
peror
nome
cca
erade
ɨ
恋
▁Sand
▁Insel
▁elected
Table
▁aff
合
Activ
---------+
▁pseudo
<0xC6>
LI
▁\,
norm
▁partly
▁neben
еде
Mark
в
▁thor
▁practice
▁actor
▁millones
▁Rece
▁Colors
▁Illinois
▁contribu
▁Kn
édé
tra
isches
ър
▁puzz
▁firewall
zd
ên
ън
unn
sign
▁partially
장
uf
▁Nikol
▁Fitz
▁encode
Ἰ
']['
▁Oracle
commons
▁dictionary
ド
▁Uniti
▁couldn
자
▁після
▁Rest
▁lines
umph
ände
▁bou
及
altern
istiche
AT
ungs
▁altro
isme
ਰ
]$.
▁init
▁func
▁Melbourne
▁Hong
▁slightly
▁является
▁reserved
ished
tensorflow
否
▁ouv
▁donné
astr
▁awk
apsed
fare
▁Nad
ARD
Widget
erte
φ
ご
▁pueblo
▁Chile
document
iedz
frika
require
é
▁invent
рово
▁inputs
▁району
▁Post
Copy
ству
ء
▁races
manual
ician
atabase
ล
▁ranked
▁робо
found
jekt
olas
速
▁skin
[])
▁теа
▁Morgan
▁semantics
quelle
LEFT
ючи
▁Kl
▁caso
▁arguments
ã
▁автор
口
▁eeuw
iele
ti
פ
▁Ста
▁Mun
▁Три
dfs
▁Schul
▁Cant
▁Sh
▁commander
▁ele
ebb
tests
erb
чу
▁knows
▁singing
▁soit
▁lo
▁translation
▁wrapping
estions
▁Scottish
▁leg
eman
▁magnitude
ков
metric
Has
Г
dst
ipe
▁Dit
▁quadratic
▁mujeres
▁ав
xtart
▁metres
wie
NP
▁Bill
Mich
▁datas
aterra
ById
зов
▁became
Mad
▁Liv
▁situation
Scan
Body
▁Jur
全
curr
gin
pow
▁clicked
isher
стоян
ège
nica
ToString
utlich
})^
бо
▁quand
▁unicode
▁Repub
льной
▁invol
▁ubuntu
▁míst
▁"\<
▁TRUE
▁nat
▁eigenen
သ
tree
▁deployment
g
▁econ
▁allowed
▁firing
▁strike
▁rocks
geq
verb
ований
┃
▁Muhammad
▁money
▁né
▁nerv
▁Externe
▁yields
▁stad
Paint
▁Lem
▁mang
жан
▁Books
▁history
▁formerly
만
ifique
▁dow
▁Consider
▁menu
▁seen
▁red
Rect
▁Raz
▁predicate
▁destac
interno
▁Police
▁prevents
▁`"
chez
▁consider
▁due
▁constantly
<0x10>
Row
}`
▁AT
▁paste
▁französischen
▁Eth
▁comprend
.
▁erstmals
tritt
appendChild
Т
▁Sed
anel
▁Async
дой
StackTrace
▁security
▁Jones
▁"</
ค
▁Flug
ulos
▁repeatedly
azine
�
Ђ
▁identific
ším
▁solving
<0x91>
▁bazie
OT
▁surpr
实
vanced
▁internacional
▁villa
▁спи
logger
▁pleased
ORDER
ovie
News
▁Praha
▁EC
▁Krit
▁attra
cciones
▁szer
').
demás
django
рё
▁ATP
면
oren
footnote
▁°
▁Nacional
▁Win
▁arithmetic
▁från
▁арти
▁везе
▁come
ództ
▁galaxies
essage
alf
▁investigate
ically
▁Mich
▁Ri
▁отли
====
▁England
▁creation
agu
▁featuring
ích
ńczy
▁shop
▁#[
acy
▁flexible
▁înt
▁comb
▁людя
cil
communic
XML
▁botan
▁\;
Mount
▁рі
▁navigate
▁Collins
▁methods
ação
▁colleg
chten
▁reconna
▁measured
▁L
▁столі
प
▁Charles
ński
▁Liberal
µ
▁(
▁integration
▁Mi
▁уні
▁Jacques
▁Broad
▁Tr
Asset
tw
▁nodes
Compiler
▁fl
）
▁integra
▁experiments
zew
[]{
▁Say
Should
▁университета
▁nyel
▁Square
▁гра
▁principalmente
apped
▁mistrzost
samples
▁muz
▁stub
▁Dorf
▁summary
Pre
settings
rect
魔
DBC
txt
▁Vin
▁situ
▁polít
vet
Sheet
▁electric
▁zak
кими
Box
}=\
▁nada
▁occasion
▁operate
Render
major
▁sitting
^\
▁strugg
▁Beg
achine
consulté
▁ampl
loc
umes
▁MAC
▁cent
再
▁calculus
▁fug
otes
▁utility
invoke
▁According
▁sixth
formance
DateTime
▁Betty
▁Here
itations
▁grep
▁Ä
▁risp
▁HO
▁beim
▁Resol
▁meant
Config
nan
anu
▁französ
TP
▁instructions
▁Gang
tit
▁Notices
▁linear
▁ing
ureau
▁View
▁eleg
ому
ющей
nick
ével
▁Flor
▁Auf
▁localidad
▁consulté
remove
▁threw
ICE
▁Dallas
<0xD0>
ted
Comple
▁ost
▁ste
▁пу
audio
iro
vement
▁instruction
▁пора
▁retre
▁Broadcast
▁following
▁ibn
▁Before
Ord
arc
uch
ด
-(
▁Архи
▁Traceback
▁dér
▁Mart
PRI
question
▁org
▁Lew
▁stopping
py
▁instant
▁Bio
](#)
kil
née
ocrat
гу
pp
▁Band
▁kraj
▁rol
▁ss
▁theorem
▁garbage
洞
▁empty
nex
▁drei
▁compan
aar
oned
blob
ˈ
▁troubles
refs
▁decla
▁surr
▁ordinary
か
érieure
▁Kos
odb
▁lect
rano
▁Services
ür
▁servers
▁counts
<0x04>
▁ultimately
рое
ood
mix
▁perfectly
▁Kra
hou
▁дире
▁Norman
▁жена
mys
place
▁unfortunately
カ
▁routine
ׁ
▁Peters
su
▁approxim
atra
▁Stein
▁C
▁Beautiful
Qu
baum
ribution
▁Harrison
▁Adding
able
hm
▁artificial
▁sail
▁все
▁poor
Ab
▁consum
▁communication
▁ie
▁si
ensoort
▁Plus
▁sid
▁Вар
▁eines
▁quelle
äler
zik
лее
▁proved
ে
▁roku
▁Weit
▁assured
▁dim
égr
▁Histor
▁augusztus
cout
▁lack
стро
▁kot
▁acid
▁фор
мана
latex
Execution
▁him
▁through
세
▁нача
▁выше
allow
adratkilometer
▁civile
пас
▁accessed
▁ferm
чные
▁Eugen
▁training
ást
▁receiver
stmt
же
▁Location
ült
然
isc
segment
вели
▁recom
???
ata
+(
foot
phan
quarters
fire
rx
▁også
▁vertical
▁подо
▁mistaken
Ê
▁не
ensk
Img
▁beyond
vare
▁dub
rypt
tem
пример
▁осу
▁есть
▁correl
yrus
▁Interface
▁Private
▁эта
▁afraid
ust
▁назва
ctr
▁URL
▁overflow
„
▁але
ával
▁decir
router
ôtel
ering
▁assez
≃
▁lí
▁reson
▁bother
sin
▁false
fun
▁erfolgte
▁kept
dy
ших
▁pré
사
держа
▁notre
ais
err
ons
з
uses
▁imag
▁Black
?'
▁Stato
▁sendo
▁print
▁SS
▁Marsh
ų
ief
▁fest
Prom
▁emphas
fficient
oct
bb
▁formed
pt
apers
▁threads
download
▁constants
Intern
。
adj
▁tenia
▁standards
▁controller
▁bu
▁ga
sten
▁Mik
boot
bert
ম
repo
▁Sweden
ing
flush
ći
tf
▁ali
fter
▁rim
ровано
▁Tokyo
▁al
▁risk
▁central
X
▁Erst
▁went
▁година
局
istent
▁colonial
▁legisl
▁hidden
▁beide
▁Looks
▁Autom
uria
plane
Theta
äs
iral
▁Malays
лись
▁Saturday
▁Maine
▁Wissenschaft
▁ships
▁сві
▁физи
▁компози
sterd
ге
adors
PDF
esp
▁Mitglieder
▁they
ports
▁Georgia
▁academ
▁suffer
▁Justin
▁argue
MAP
vironment
ена
XX
padding
▁прав
▁Shared
▁faith
▁suis
▁Little
mann
short
ues
▁confl
▁lear
▁registry
▁Sri
▁производ
▁miesz
▁shows
▁propag
リ
BASE
required
▁December
▁Safari
.`
▁Gray
▁».
▁population
code
enen
summary
▁import
sheet
▁slow
▁пери
AB
▁Вол
レ
aped
anh
▁async
tał
▁tandis
holm
▁plenty
ової
▁consequence
操
▁Josh
▁Ho
лен
▁integrate
于
Task
ili
▁hom
Ed
<0xDC>
！
Tests
▁asking
▁Gilbert
ichten
Edge
vspace
▁Ray
▁Had
▁wishes
▁å
CTYPE
▁Джон
▁vous
▁economic
""
▁För
icted
▁луч
▁фев
*"
rep
){\
▁communauté
▁excellent
gui
▁expand
imir
▁uno
▁estab
▁zar
chi
lika
も
▁primeros
▁Champions
▁everyone
都
▁Centro
creen
rev
▁lowest
▁Modern
oge
athers
ouw
▁gaz
▁temporary
▁god
▁develop
ál
▁Griff
▁imper
lossen
▁nord
akers
▁Че
▁Sher
port
lius
类
jsp
per
override
ovan
▁ud
lin
INTER
che
irus
egin
rage
build
▁aw
ʂ
tabular
fér
▁gat
mont
▁Dia
▁které
▁passage
fan
▁scan
▁talál
▁Director
filter
紀
″
▁desarroll
▁"-
neh
▁turn
wi
▁Early
▁June
▁holds
тие
▁wicht
▁indirect
▁appearances
▁primit
▁ride
ini
ス
▁Log
Bra
azure
chas
▁Mary
▁cir
▁online
▁varmaste
▁simpler
▁casos
▁ports
▁Ern
Before
▁Dutch
ök
Statement
▁Width
Gui
rons
▁)
czas
čka
цо
▁reducing
▁prefix
ppa
▁hyp
▁hosting
▁cal
▁sal
▁graph
<0x89>
▁così
▁Después
▁tecn
archiv
än
ulus
вля
▁assumes
▁number
iami
▁grado
▁peri
▁tegen
▁discipline
▁turning
▁држа
▁restaurant
ciendo
veg
▁rappresent
▁Cit
▁Phys
정
▁julio
las
ones
Completion
ны
▁gent
▁substring
sp
▁----
▁Він
▁joue
▁complement
▁pesso
▁accomp
▁curves
▁planta
▁track
▁vida
▁violence
ental
▁това
▁sites
$).
quot
pection
▁demonstrate
▁sec
影
▁schema
rico
▁Catherine
▁abroad
ità
вые
Са
nahmen
▁backing
▁:-)
▁answers
▁ning
май
▁declaring
▁divide
grad
orders
ifications
öff
从
▁official
BC
esk
▁devices
cling
▁Share
▁bay
▁kind
ellen
ologia
▁helper
▁viv
HH
▁portion
▁→
▁`&
Na
▁faced
▁Encyclop
&\
aint
клю
history
∆
▁writer
ometric
▁моря
ана
ג
▁ruled
oration
зыва
▁women
▁pac
▁diagram
owie
▁Pont
ann
▁clos
▁wear
▁scatter
ait
▁enh
Pod
unst
▁veget
grund
▁Nancy
▁narod
▁statue
▁separately
▁bir
disabled
ï
▁Football
atta
ffff
▁blind
▁least
JECT
▁Integer
▁Stanisław
▁этой
▁appointed
▁damage
▁scrolling
▁Less
}+\
▁dello
▁vue
▁ég
▁време
tery
timestamp
hot
foreach
▁Э
jango
TRUE
stav
вра
REATE
▁foram
ビ
▁resid
▁backend
су
▁newsp
▁Kurt
▁rendered
▁nj
座
all
▁Seine
▁Fort
▁reception
Adapter
media
Boolean
▁Commission
▁Christmas
َ
VM
▁earth
ilst
oit
▁SO
weak
uren
["
kreich
ember
ví
>
̈
▁Claud
▁hook
̌
▁tribes
▁Offiz
▁sezon
chat
rote
ême
<0xF9>
нци
▁survey
avam
▁composition
раз
▁accessing
▁Ul
Logger
></
ченко
▁readonly
▁été
▁дома
iverse
▁Au
▁canción
▁му
▁celle
Strategy
linear
▁chem
ieren
zat
uchs
▁grid
▁Dans
[
identifier
▁Object
Tags
keeper
unci
▁Rat
▁encou
nungen
City
Hol
▁Vors
▁oldal
▁trouble
alem
▁Gla
m
bow
idor
경
Ν
<0x9E>
CSS
MAX
▁quick
▁opp
▁жизни
hi
▁indic
▁school
▁bath
▁Syst
▁revers
зер
▁instinct
cape
▁forall
秋
inch
▁Carol
▁Personen
▁Spring
▁Sur
▁consent
vere
▁висини
▁com
sqrt
▁мы
▁Cre
▁stating
Help
▁it
▁Labor
imento
ario
device
▁INNER
▁Mr
▁===
API
▁learn
▁royal
<0x4C>
▁ant
kö
▁Националь
писа
▁ws
bug
┤
arono
ství
▁bald
anza
using
▁doub
▁reli
▁shortcut
azz
▁advantage
слен
թ
▁Baltimore
▁godine
iento
бира
▁rabb
▁white
▁Ferr
▁Civil
named
▁нор
▁gru
ног
▁Ellen
▁Lage
:[
▁hands
jb
▁includ
imer
oth

ang
▁goes
sur
▁hopefully
▁han
▁lex
▁ya
▁divid
hui
▁require
▁Ли
ituto
▁regex
▁Senior
▁zdob
▁Network
▁facil
▁August
വ
▁или
neg
ijd
asures
▁jeweils
▁Kreis
рон
▁Jen
▁Night
NI
▁hinter
▁rule
ieß
▁fis
atisf
▁color
▁whe
▁quotes
ension
exchange
▁hits
▁share
▁wondering
пи
▁studio
wave
хра
▁nep
▁меся
image
mon
<pad>
▁!!
('#
１
ők
agh
imeter
▁aix
<0x44>
々
物
ską
jax
стви
▁Append
▁ult
kou
othy
▁pill
}
▁Cad
liest
▁tcp
enne
▁Forest
arf
rack
▁Masters
▁mån
Exception
▁Rails
▁resol
▁maior
▁inc
чный
fte
Have
▁missed
())
▁know
▁prospect
antages
▁converting
▁Partido
ɣ
▁leur
▁stru
▁russe
▁trial
essed
Import
▁север
▁failing
Pop
testing
сту
MS
pose
pus
jdk
û
▁Javascript
▁appeared
▁cour
▁last
▁somet
▁Reference
▁thick
▁vio
▁буде
▁налази
adémie
Plus
Ad
▁afin
は
▁museum
必
▁princip
ugg
цького
sky
▁";
▁При
Tex
ith
码
стров
参
▁effectively
▁becoming
▁connect
ken
ican
▁nieder
lą
ão
ambigu
та
▁smiled
▁Аль
/{
▁webpage
legal
▁cam
labels
acht
▁Mor
▁lambda
▁demand
▁програм
▁enables
▁Martí
phantom
assen
▁райо
ens
anal
ních
yt
▁hier
Time
entic
<0x49>
building
*/
ék
nim
ɾ
▁IL
▁RewriteCond
▁novembre
ging
IX
¢
ins
▁muss
▁festival
cole
▁video
ati
▁Prof
▁associ
▁conserv
міні
land
ów
▁valle
Navigation
▁happy
▁Paris
cedes
iga
▁file
▁major
▁logging
ються
gence
){
EventArgs
▁Durante
▁zab
From
▁bar
▁Division
Seconds
Inner
▁GP
plot
legraph
SET
▁necessity
龙
Something
inson
▁Ris
▁Fußballspieler
hosts
▁breaks
rę
ift
▁partir
Mobile
pply
▁Республики
▁Dé
▁familie
<0xFF>
▁ear
ocument
нг
▁west
▁ev
▁rid
▁Mitchell
▁tradicional
▁habit
▁layers
▁Yes
▁бра
()),
servable
⌘
▁FI
Sigma
▁printed
▁мето
indust
ril
▁Jin
▁afterwards
电
bourne
▁computing
▁Building
called
uit
aj
▁писа
▁anos
Im
modal
▁ext
utions
▁Op
▁csv
animate
reload
▁highway
▁zaj
▁versions
Sp
tm
▁Hibernate
▁skip
▁вид
ocity
▁wherever
▁random
▁террито
▁piłkar
▁satisfying
azi
gom
$
▁extensions
▁sow
▁wur
▁additional
jest
рей
▁eind
▁italien
島
priv
▁cp
Datos
ivan
go
▁bare
▁distance
止
▁позво
bildung
▁Jud
▁provide
▁celebrated
region
sted
▁depart
▁lemma
▁LINQ
normal
┴
▁cursor
▁Lit
▁ern
ELD
添
bash
▁Kor
▁impro
DOC
ètes
▁inclu
▁certificate
ouver
▁piece
▁referring
ป
rl
▁recherche
\
▁<>
nt
▁vertex
лек
abama
anged
▁align
▁[`
▁Ric
const
▁Wol
ả
ique
tty
gypt
▁Nap
▁Test
ço
▁grote
èque
ൻ
pond
ück
▁Develop
rable
Request
▁ball
▁worth
例
Post
▁Catalunya
ia
ִ
▁Alfonso
▁Mobile
▁seg
▁Earl
phase
▁egg
▁der
▁Gemeinden
▁policies
▁various
▁lut
▁précéd
ORY
анг
BI
Control
Int
▁gior
pad
▁involving
ibr
▁tempor
▁IE
▁temp
ges
▁documented
ild
}^{-
▁characteristic
Ñ
ij
▁Musical
Edit
▁fre
▁ii
▁tends
ategor
ordre
▁table
单
------+
菜
SER
œur
▁Input
▁variable
▁eine
▁They
▁samples
▁ucc
▁wieku
▁Auß
▁legend
iva
▁Hope
▁JQuery
▁Turkey
▁subsequ
▁action
typen
blue
rias
medi
▁`@
oslov
▁май
bij
▁address
▁ul
Τ
duct
](
▁déput
ocracy
▁живо
▁código
elde
Prop
ixa
▁título
mathcal
dx
▁parents
ocket
groups
▁Expression
▁Cuba
▁Nella
▁hub
eny
LY
▁adapt
▁delay
chev
iqu
Call
dbc
cego
▁formatted
dll
nig
▁candidate
▁represent
мини
binom
▁noticed
chni
▁Leben
вид
▁bos
vim
Supp
▁Tony
▁früher
rinn
fs
▁animal
▁lady
▁Lyon
元
opy
▁compon
ССР
▁beh
▁parlament
ibile
▁demonstrated
▁hypothesis
▁infrastr
day
▁ins
▁grad
:\
pción
ське
arp
лу
edge
▁worst
eses
ників
▁hear
Interval
Allow
ikus
legt
ér
▁responses
▁subtract
结
▁Mittel
%;
▁Og
げ
marks
postgresql
PC
変
▁nar
▁components
▁End
catalina
▁expecting
BB
▁port
▁także
blog
ള
五
ecycle
▁Mundial
▁Ib
Override
▁Abd
▁дія
▁Jazz
▁Rum
▁+
wers
chor
хва
ymen
▁ut
@",
ro
▁recovered
Par
▁amor
endance
ský
lade
▁cheval
▁musée
uil
SA
cement
pend
rys
▁après
光
▁Ligue
▁gez
rad
itul
odore
▁Româ
▁fasc
▁dix
▁New
looking
angol
cules
が
߬
收
▁Arab
▁Sommer
listener
Ġ
▁tens
▁Hamilton
▁certific
▁search
platz
▁siguientes
Lond
}-\
œ
▁ста
zych
▁armed
cup
Collect
▁Pedro
▁nas
▁zač
trim
▁equivalence
▁Feld
fø
▁Sc
▁vars
вое
▁Ki
▁seinen
arina
▁Inner
主
▁Porto
▁ње
brázky
radio
▁vier
got
▁heavy
▁Населення
▁delight
▁Akademie
▁principale
<0xC4>
▁Software
▁EM
▁place
▁merc
ritz
ething
Prefix
once
▁оби
▁Wir
▁pg
▁Em
▁Amer
ames
▁Top
▁obten
isat
▁complete
ого
<0xB5>
geometry
yen
Bit
resolve
rical
▁centro
▁fort
▁struggle
▁Freund
▁prest
▁Border
iour
▁chemin
▁think
▁sortie
update
▁winning
omorph
▁output
▁disc
ето
▁april
ide
▁traject
Long
atur
énario
▁prix
ession
uring
MA
ClickListener
▁cant
▁Кор
üss
¸
debug
ма
venue
ature
▁startup
сом
tensor
▁dass
eno
apk
▁Australia
▁character
▁pole
elle
▁lan
cian
▁confused
▁Sov
▁Festival
mond
ics
▁east
construct
▁ingår
▁virtue
o
▁Pref
каль
ayer
ض
▁relev
obox
▁харак
♂
ske
▁contact
function
nad
▁adjacent
▁fla
ença
POS
▁Mrs
▁осіб
▁LEFT
що
▁bott
dg
каза
▁pandas
igration
▁vě
führ
kehr
▁рай
▁дея
▁Brandenburg
GR
▁уни
mary
Sw
▁celui
▁estre
ש
▁bus
▁mad
▁Curt
▁accordingly
▁Late
▁secured
нин
ют
▁mismo
--------
▁spiel
έ
▁finalmente
▁possibil
▁correlate
▁inde
do
Co
經
lean
▁American
okal
oph
ово
း
▁hijo
▁hopes
▁photos
ники
▁diciembre
axi
▁alpha
▁oktober
▁repos
▁sugar
▁_,
À
aben
变
CESS
ensed
▁szere
Serializer
ieron
▁poj
пр
brie
érez
▁transform
andr
▁Search
ele
▁Shah
▁Empire
itive
▁concentr
▁correlation
usted
▁зу
▁центра
▁interpret
▁Set
▁greater
Cont
▁Bei
zar
▁essere
opo
▁terrest
ruf
apper
età
ready
▁Stadium
▁natural
▁commit
▁turns
jen
FROM
bars
▁actors
сут
▁Evans
iore
土
▁Probably
▁Altern
汉
(...
▁struggling
▁am
▁shoot
JAX
ROOT
uffer
abstract
▁Frankreich
!=
enti
▁dynam
appa
▁Fam
▁ere
▁frameworks
Job
══
▁déjà
▁Mass
▁victory
▁Де
▁Punk
writer
shell
include
▁Arr
▁Never
▁SW
▁inaug
($_
Sk
home
▁Regex
▁auf
▁Toronto
▁lock
▁passing
▁Vere
▁shell
gt
▁longue
▁donn
▁value
екси
▁vast
▁nin
mot
ikai
▁Minister
▁Table
▁position
тори
га
ή
▁tasks
▁Natal
▁кино
()).
night
▁pom
▁неко
come
ubern
▁manuscript
▁cha
optera
▁Rog
▁ep
ises
ITE
ale
▁dont
▁броја
"/
▁shook
▁excel
▁Bew
▁served
Entity
Json
xture
▁description
ierte
▁Tai
son
▁DES
▁splend
▁((
▁kw
RI
cz
Feature
▁check
▁ти
区
▁nombr
▁story
etra
MM
km
ἐ
▁anchor
imes
ø
▁maximum
▁List
▁сезо
photo
▁magic
希
្
INT
cre
▁theoretical
▁estate
▁много
ri
ail
charts
share
▁febrero
__.
▁Actually
▁grupo
talet
hover
▁SELECT
▁pel
▁Отече
scope
▁promised
touch
▁zast
zh
▁Î
集
DOM
▁wanting
ื
ṃ
General
onces
▁calendar
scripts
SBN
▁clicking
▁przed
iction
ieg
prefix
▁Max
akh
▁Syntax
▁trigger
Dom
赤
▁У
武
▁bs
▁Sir
Namespace
<0xC1>
▁$(
▁dit
▁Replace
转
ArrayList
▁rendering
Browser
▁fid
▁DESC
lé
▁Begr
ване
▁lookup
ppets
kafka
▁pav
▁stim
CONT
іб
Auth
cias
▁forgot
▁recently
▁musica
node
ící
▁las
▁march
ournal
ными
ℂ
▁fueron
▁cli
ará
chio
мене
▁co
▁plaats
skip
▁system
▁ur
inden
▁resize
▁древ
▁район
▁▁▁
▁Pennsylvan
ждён
▁ad
зей
weit
ILL
▁CASE
jähr
Watch
".$
key
created
▁maven
topic
▁commanded
▁ram
▁осо
liches
▁catal
▁critics
neq
▁contemporary
デ
▁runtime
▁create
rewrite
▁There
▁cert
▁synchron
VICE
▁$$\
▁naturally
/).
▁according
▁succès
▁sum
▁že
ół
шов
▁Brasil
irtschaft
▁Archite
opro
rob
etwork
▁solution
▁quot
hom
▁voices
oem
▁exerc
bek
▁thousand
gable
▁CNN
▁sor
Schema
irmingham
▁pier
▁expert
▁Ге
▁Flora
▁unknown
▁został
urale
▁platforms
▁radi
▁им
osoph
ёр
▁dump
▁transparent
üssen
af
complete
<0x2E>
я
▁cutting
ever
▁handlers
ifference
VA
support
▁erh
SERT
ização
enes
▁borrow
etr
iszt
▁jam
▁capitale
mount
▁Lap
▁otros
バ
istre
гле
▁quant
кол
Option
bably
Close
est
();
iente
ldots
ую
▁bootstrap
apest
▁clever
▁Под
会
MW
put
ordnet
▁Platform
▁embedding
▁für
Delegate
ん
Dr
▁prez
medium
▁брига
▁families
▁doubles
▁income
▁porta
input
ismus
▁convirti
arse
▁chaque
▁corn
▁mie
▁deep
雲
▁cov
▁vert
▁chat
▁RewriteRule
iom
▁Business
US
acter
▁FROM
▁haar
"],
hew
市
<0x08>
loss
ópez
▁febru
emann
▁medi
▁secondary
vd
]])
fix
honneur
▁presently
Self
夏
▁Diese
èn
▁rue
ступ
▁practical
ною
▁ric
лександ
志
ns
▁Download
위
▁Portuguese
atore
<0x47>
銀
▁zwei
<0x86>
l
▁illustrated
▁című
अ
▁lud
asant
今
izen
▁manifold
CASE
bur
▁él
Bitmap
rais
▁rows
학
<0xA6>
care
}
ž
▁UITableView
▁Today
need
imiento
▁ней
星
best
ὸ
▁lutego
▁habitants
ા
▁advanced
erson
▁right
Dispatch
Ptr
▁округа
▁period
opsis
ís
▁persistent
▁поч
▁auteurs
hely
ologist
▁cycle
ijk
oms
оні
љ
Excel
",
í
ancement
гер
▁britann
▁interpreter
▁ше
eps
wr
▁suggests
geordnet
▁Du
▁mellan
▁Dro
jQuery
lack
ística
ü
▁blow
▁présence
▁pin
▁list
arks
▁indexes
ioned
▁Ge
Callback
Culture
▁perten
Element
▁only
取
▁Game
ера
우
about
▁Further
世
▁fallen
Al
INIT
ackage
дат
▁Napoleon
▁gives
▁MD
▁ny
▁полі
▁concert
avy
рев
anstalt
▁repre
)`
Bel
▁because
▁veloc
▁gal
ォ
▁citiz
onda
Live
龍
vars
Runtime
]);
▁Dí
▁filtering
▁prev
▁knowing
م
▁Fur
)))
▁Copa
▁entrance
▁Have
asto
omp
▁algo
▁Fire
▁Disney
▁мен
gov
gebras
ll
▁führ
▁nov
ithub
إ
URN
aten
▁defeated
▁Bir
▁gros
swing
ք
▁Roma
▁Tem
▁environments
▁tedesco
▁Ту
▁LI
transform
▁nueva
models
stüt
▁acts
▁jaren
▁sketch
гра
}$-
heb
▁тек
▁ac
▁theories
,%
▁депута
cond
▁donc
▁blue
▁ip
щее
▁translated
▁Fot
▁VARCHAR
▁Brazil
êt
▁invoke
gens
▁Generation
▁affected
волю
kem
₃
▁Facebook
folk
<0xC8>
ный
libs
rew
▁Ker
▁conhe
▁enf
▁édition
过
%)
鬼
issions
column
▁che
PART
ісля
仮
nete
▁partic
▁Exception
▁Italien
▁fet
▁politico
▁removed
▁mention
▁LIKE
ctrl
▁trib
▁strip
▁пункт
ville
baut
▁efect
▁переда
▁Township
utable
anga
ede
▁identified
।
▁box
▁Pad
️
mt
▁Jup
▁neural
▁Ша
▁чемпи
▁себя
▁slower
▁recording
▁-(
itories
}}.
![
ault
selenium
▁seemed
="@+
controls
ствует
jan
ward
Login
▁¡
▁і
▁laquelle
JB
▁ignored
ül
игра
coli
control
▁Sar
▁sector
▁кре
gef
ly
▁Pietro
▁limited
LR
ser
▁cod
leich
▁Tow
▁device
agem
▁ON
ajo
live
▁Gul
▁__
inger
▁literal
ception
ność
▁Cur
▁Gründ
▁can
▁respectively
阳
\,
lau
rough
бай
▁ever
фри
жена
▁Wald
▁genius
ostream
нь
activ
▁Sydney
▁pay
れ
odd
asma
▁sj
▁zák
▁Delete
oga
би
гар
▁Né
▁trasfer
anterie
▁pros
▁obsc
▁UN
▁Most
enable
▁Live
▁alloc
▁×
onso
▁none
▁объ
ao
</s>
▁personn
niu
Connection
anter
str
科
▁матери
▁dieses
ject
▁Hall
▁située
tb
▁Inf
▁fault
ensch
Am
▁altres
▁Good
▁División
▁semif
▁проводи
oggle
ędzy
ể
▁Prop
▁certain
▁Á
▁Årsmed
{{
ів
Well
▁månaden
bul
}}(
▁sons
▁já
▁meters
оло
▁withdraw
▁jeune
Mill
▁from
▁фото
generated
▁Dup
("<
engelsk
eros
ponent
LS
zeum
▁Currently
■
sorted
Method
▁subsequent
▁consisting
▁dic
▁seva
hart
▁Wiener
schaften
stdout
▁Team
▁punto
╌
Daniel
oss
ще
ek
▁органі
▁published
antom
íp
▁Stock
▁configur
ө
▁possess
osa
▁продол
▁searched
▁gave
草
hrte
▁pairs
▁journal
osten
▁assass
▁Tower
Identifier
etch
ogeneous
▁Vers
iteit
▁wife
die
▁dwell
preis
ил
GM
centering
drawable
icro
▁před
▁winner
▁sometimes
▁стан
▁habe
到
机
provider
arz
▁cher
ive
course
▁ensuite
▁regards
gal
▁Deutschen
FC
IGHT
▁attacks
Parameter
TRAN
HC
▁між
教
▁ком
▁nab
▁hen
▁Organisation
water
▁gemeins
▁Motor
▁vid
Sample
itecture
▁MyClass
▁bas
▁basic
▁della
▁реа
ksam
phen
▁SN
▁Can
▁current
bos
respons

тельства
▁largely
▁воен
Show
erve
]`
uming
▁Projekt
elihood
▁Peru
amenti
ене
UL
▁Diego
▁erste
¨
ille
▁Ple
borough
рес
ały
▁travers
▁све
heart
xt
▁dram
sak
men
▁officers
▁Rec
▁questi
ig
Ἐ
▁<<
▁Wonder
▁certains
▁conject
▁CON
▁classic
▁refresh
aniu
▁grouping
▁notion
节
bal
▁koji
▁Carlos
▁doch
▁believe
▁vehicle
BR
Fe
▁Kings
▁T
▁detection
єм
▁Emil
▁Tod
▁fő
算
cost
preventDefault
▁Production
туры
illery
plus
▁день
mic
▁..
aje
ation
y
erman
▁Some
▁scattered
▁tradition
▁viel
▁Balt
▁practices
제
Av
Tab
▁requirements
нова
equality
▁було
ther
leases
?,
+"
%%
ret
Cloud
▁Ortste
ступил
Ἀ
目
▁His
ква
ப
‰
dev
▁PATH
▁juego
▁junior
▁somewhat
▁verschill
embed
categories
owed
▁Бар
Gener
▁Hoff
partition
▁burning
▁glad
▁being
Þ
▁López
▁civ
recogn
▁sust
▁maintained
cano
▁wal
til
äst
based
▁encrypt
▁lu
▁www
▁apply
▁svol
Answer
perimental
▁author
bla
LOCK
▁occident
)/
▁España
▁'_
▁drawn
▁justice
кола
strong
▁nacional
▁simpl
tcp
▁industrial
▁trunc
rowser
▁Japanese
sf
s
▁paramet
REG
iums
views
zer
statement
▁gender
ppings
▁diameter
▁Fair
▁Thus
▁meille
ibration
Mag
quis
Đ
▁та
hole
fluss
测
▁sac
▁simplicity
▁installation
utat
▁intér
▁faithful
▁unique
ى
tags
▁flor
▁joins
▁nou
amed
ários
▁din
zor
false
▁designed
:`
Member
legate
pick
png
▁kiss
▁сим
▁involves
▁observation
▁remarks
一
▁Always
Validation
▁Api
dem
olt
▁verk
▁describing
century
▁Buc
▁Def
▁dozen
▁erw
想
▁Convention
'),
quest
▁Ссылки
▁Put
geb
▁&
ár
▁któ
SSION
▁curios
andon
modules
ju
кая
ians
▁липня
▁:-
swers
▁glory
▁gol
▁b
▁craw
▁Нор
▁required
▁Otherwise
▁Laz
▁kle
▁університе
orer
▁endl
Just
third
▁válto
▁coinc
PY
▁Global
tersuch
ECK
₈
▁Char
:-
Enc
kel
다
бран
зь
binding
boost
osz
̄
▁chrome
▁día
▁Källor
▁accompan
▁Heaven
êque
▁Heinrich
los
posts
▁compl
▁contrad
▁управ
▁затем
▁Energy
▁enumer
лина
lês
▁produces
▁sessions
view
▁étaient
▁Від
Ind
▁Theater
je
▁éd
TF
▁Ford
▁Luc
▁kernel
▁klub
▁Afr
wait
↳
▁subm
▁Up
▁Palace
SS
FFER
▁pueden
▁inferior
athon
push
▁signals
▁сохра
學
思
WD
ці
վ
▁handling
▁neces
▁Rang
▁restore
anse
▁talked
fried
oby
berry
▁proget
▁sí
▁наи
interface
▁cold
▁proposed
amm
univers
▁remov
▁daugh
▁Puerto
taient
山
portal
](/
.,
ร
ný
ရ
▁каче
▁rarely
▁property
ynt
▁Leipzig
details
async
external
株
/*
]*
Û
▁Dest
here
▁generates
Ь
▁anti
▁account
omas
period
▁Clear
gh
▁Santiago
innerHTML
kie
Ё
payload
▁epis
half
Service
ers
ody
▁awesome
писко
Instance
▁algunas
清
▁shelter
define
ührung
ְ
▁pouv
▁width
▁ры
ња

She
cmp
incie
wner
▁Department
▁Gegen
arith
▁Bach
▁Tom
▁Theatre
ператор
цій
embre
▁în
▁ese
▁Spanish
▁Par
▁пози
▁DA
▁immagini
▁Historia
▁conclus
▁often
book
▁drum
▁Amerika
Sim
▁Wilhelm
expected
+\
ifa
isto
zott
elijke
₅
fortunately
▁Adams
▁Andy
▁mai
Ass
jör
cam
mense
▁PRIMARY
▁stored
▁North
▁świata
▁behave
▁tijdens
besondere
orrow
▁окру
spieler
▁expl
后
лле
▁Selon
iese
dp
getName
▁Kid
▁proof
▁hely
▁ми
ume
О
▁dels
▁personne
istol
Running
▁imagination
compat
völker
▁Grad
▁Vladimir
▁sup
▁има
▁Tol
perp
▁Wilson
▁hoping
▁llamado
▁root
夜
ht
Sdk
▁favour
▁Singles
▁hecho
▁Stanis
FirstName
textwidth
▁Оте
▁spirit
Mc
Rate
rt
▁subst
kens
▁phil
▁ill
▁muy
berger
uis
EventListener
Lng
ionen
edo
ughing
▁музи
▁rank
▁municip
so
under
▁Monument
▁kamen
acyj
▁Nan
rz
▁Susan
▁rear
rov
Methods
ating
▁IEnumerable
ς
▁Teil
▁reuse
ο
▁tent
iglia
▁And
▁Glad
▁février
▁Jan
ividual
('/
aries
▁Bruce
și
même
▁Korea
facebook
▁TE
iao
jpg
▁Machine
▁calculations
▁СССР
▁Turkish
icy
\{
▁Seg
▁fully
▁März
▁slide
ont
cipe
▁eigen
▁Racing
▁sleep
ear
▁forest
▁Пари
▁Это
▁thirty
▁было
STR
vier
▁interview
▁lá
▁Geography
▁Hir
Dialog
▁Sie
管
}}$
房
ocr
▁entity
ty
▁Server
▁exist
MIT
▁Ax
(&
▁lloc
Hello
authentication
▁gebied
▁pir
mar
▁Miss
cipl
▁Nelson
▁doctrine
▁haven
lista
▁brave
景
▁Тур
▁роман
Boot
▁Київ
▁desde
velop
▁Virginia
learning
▁repo
join
▁IT
▁Cl
▁fün
ustom
▁Pred
▁richt
▁combat
▁складу
imin
ственной
RC
▁User
▁comand
bridge
▁rust
aaaa
▁wat
▁rs
陽
kmal
′
inde
ά
bero
ilio
Check
▁Beruf
▁coat
▁Junior
reducible
▁auth
▁tongue
▁pod
auto
▁elektr
▁sé
现
▁tile
▁lado
息
送
▁ph
▁см
mouth
дон
idia
wo
tn
▁Engel
eden
▁lifetime
TYPE
bay
▁Ren
▁Riv
тии
ု
ap
▁Diam
▁prec
▁Charlie
лова
condition
ST
布
Validator
▁ehemal
▁instrument
Area
▁Perl
lej
▁Anth
▁parsing
▁den
нитель
Link
▁Douglas
▁Style
fahren
▁systems
aug
ен
rb
▁gain
ус
▁resource
chus
▁Als
▁worse
iska
Recogn
▁Jenn
ince
▁ni
ція
мор
▁dogs
▁När
▁así
pmod
хе
▁nose
▁loader
▁Section
▁fake
oug
TextBox
mm
▁февраля
ites
▁%
chter
egründ
Get
▁please
ך
webdriver
▁appe
Value
▁посе
▁ihn
erving
▁Multi
▁habitantes
\'
▁cool
child
▁otten
conf
avia
above
avoir
▁Christopher
▁Adv
width
FFFF
▁affect
▁spect
zed
▁rivers
Term
▁Po
▁Wit
)>
Debug
halb
most
raham
▁Ale
▁decide
EV
▁Trade
logging
▁developer
▁more
▁moins
вя
▁français
anya
buch
‭
bc
話
▁rien
▁dom
▁alt
gets
▁spite
▁запа
ortheast
▁rub
▁№
fic
rä
ље
▁parfois
▁lay
▁Scott
▁ces
▁contradiction
▁copy
`)
▁Creative
▁advent
ross
▁Bau
遠
life
▁campe
▁Julian
▁Catholic
anton
erm
▁spraw
▁hell
бен
▁Fischer
▁årsnederbörd
▁Microsoft
▁sous
▁advert
adesh
iere
라
孝
YY
ugel
ionario
ARNING
elem
twitter
Exec
▁gene
▁one
ters
▁röm
irks
▁Ak
▁->
▁accepting
▁amer
▁nederbörd
er
related
▁Rosa
▁кар
克
▁go
▁poc
beck
▁config
ource
▁audio
.</
▁eux
оте
cycle
asha
reverse
▁Word
▁població
icol
▁excited
ору
▁diver
Em
Ì
▁Хронологија
▁nombre
window
▁>>
▁Из
AI
lation
▁Mer
▁covered
edu
endorf
▁buff
ethe
▁прави
="
▁pun
Sender
‚
▁Za
▁colle
▁monde
▁IV
გ
▁risult
Men
macht
▁elegant
riction
▁derivative
▁mean
▁the
Scale
▁html
▁hurt
▁genomsnitt
▁letter
 
scal
ility
▁Command
▁Dar
▁opposed
ordinate
eth
selected
▁Sem
▁homme
рем
ade
emed
▁committed
▁fits
▁тре
▁lasci
▁inj
▁}
▁phot
的
▁aware
izia
\/
ů
ствова
▁Kant
ami
auf
▁Brow
▁Storia
▁rare
▁tight
За
inet
^(
▁dessin
Ben
▁goog
▁dut
▁see
cko
▁petite
▁przew
alia
▁alla
Alignment
▁Icon
▁advise
зда
▁Joh
umann
INDEX
▁catalog
▁haber
onnes
▁dot
▁Corn
▁біль
ște
Constructor
()
▁Audiodateien
▁fabric
$;
▁ар
play
vano
att
ografie
▁sott
▁результате
▁js
Connect
▁eg
▁stran
▁prompt
▁invest
S
cro
▁Inc
état
学
when
▁rud
▁tx
esterd
unos
▁bundle
inter
▁collabor
▁мар
▁interested
彦
repository
Provider
▁depending
inta
▁charts
▁Wrestling
▁calculation
▁byly
▁slope
itu
▁musical
研
ITH
ż
▁Council
anno
▁writing
▁Science
lop
▁Volks
▁economy
▁Manchester
Pass
▁Kot
▁queen
ainer
▁encrypted
Bal
tri
▁Self
са
TABLE
▁celebr
▁RUN
▁Village
mpeg
▁czy
▁bois
nx
idades
▁Durant
JSON
▁Ay
▁regarded
▁fjär
▁interests
ть
▁prob
John
lbl
♯
рен
▁stag
цію
▁Nat
▁neu
roke
adin
pid
▁XIXe
cit
neut
Argument
▁lav
aught
▁opens
ῥ
▁persons
列
▁ping
Selected
calendar
▁error
▁por
▁Package
estore
loster
▁tiny
▁Canada
($
▁lake
")`
▁explan
▁между
▁).
рите
esa
cmd
due
▁Thread
▁Künstler
▁Meister
▁dinner
isl
▁Greg
▁sjö
▁Fland
▁modes
▁Pala
▁Advanced
▁factor
▁également
▁Akadem
▁poster
用
▁citizens
▁který
▁believed
▁notify
▁Jugend
elly
hem
del
ellt
改
вест
▁Oliver
Document
▁área
InstanceState
allenge
issa
acks
▁Vel
▁pm
▁cultura
▁corps
▁Version
irc
▁Pologne
collection
чий
gebra
▁matching
aled
%).
férés
▁DLL
dar
▁Da
⟶
▁ago
▁witness
vendor
▁Gaz
defn
pression
▁neut
ULL
▁concepts
▁inqu
IS
▁dst
▁programa
▁Example
amazon
Щ
лений
▁meter
äche
┈
▁wont
ardo
▁Лу
être
nde
edeut
▁Inv
尾
▁cloud
▁illegal
▁Verkehr
▁dernier
▁Sé
▁Hop
Redirect
ón
▁prue
▁сіль
▁relation
erer
AND
▁Ind
elsen
▁Jewish
▁Tamb
▁juris
da
........
)$$
മ
Cre
сков
▁certainly
▁Cependant
.~\
▁MTV
Network
'):
he
zeitig
▁norm
igner
▁Navar
bst
▁candid
▁Ram
▁techn
放
▁значи
▁Según
<0xEF>
▁conne
▁Islands
scher
овано
▁dzie
▁Gruppe
▁sending
nehmen
▁Hy
▁wings
verso
▁Ji
W
▁même
▁partial
台
<0x9A>
multicol
▁choosing
▁mal
▁suic
<0xC7>
▁atac
athan
simeq
▁francés
ido
▁explore
▁imagine
partment
machine
▁stör
▁les
雄
▁пра
▁cham
▁toutes
Selection
лез
то
edly
▁Sohn
▁[:
execution
CollectionView
▁Mel
▁accommod
▁business
▁Offic
▁instit
bahn
доступ
rama
▁Wright
nych
▁tries
▁También
кому
Mutable
emento
▁Ivan
▁Occ
▁jeu
▁partner
▁Finn
▁május
лимпи
findViewById
IndexPath
зова
▁Fine
▁opening
▁Би
▁распо
▁sudden
▁сотруд
▁choice
▁sulle
textarea
য
❯
ennes
umi
只
년
▁Lex
links
▁différ
ário
▁funcion
attribute
Display
omb
▁Bef
QL
listen
sprech
▁Lot
▁indexing
▁anyway
▁cela
▁пи
▁región
angles
onomie
ület
▁definition
Ex
État
▁symmet
▁Pam
uy
▁bullet
▁рус
▁thoughts
▁Sil
bibliothek
▁attempt
ề
▁disabled
▁havet
▁schon
▁flat
ъл
▁Olympedia
▁sistema
itute
development
ништво
жду
▁скла
liers
▁bem
▁ook
▁fuer
Stand
▁also
les
pmatrix
atif
alloc
ÿ
▁im
stronom
▁mas
fest
▁comparing
▁pop
▁dv
▁Sat
▁TABLE
ingham
PATH
ned
Ch
agrant
γ
▁Tried
▁layout
▁Кри
prevent
▁Oregon
▁door
contre
▁tätig
▁California
<0xCF>
iai
▁ora
▁rational
▁submit
complex
.'
:/
patch
▁cust
properties
antin
▁Wisconsin
▁pec
▁przeci
cean
▁Draw
▁Seven
▁possono
▁tab
▁inclus
▁Cloud
ми
ánd
▁difficult
▁twe
▁Russ
uro
partial
"?>
▁fot
BO
Multimedia
ulo
▁Presidente
mathsf
em
▁handle
Se
▁Види
▁definite
userId
▁pia
lj
▁at
▁Army
▁East
▁miejs
್
چ
▁argument
▁electronic
Qual
hen
▁child
бере
▁middle
'"
▁distinction
▁programma
nom
▁Val
▁опера
fa
▁rever
adratkil
ods
少
dit
parison
WT
▁holder
▁administ
actions
▁Cultural
ett
Typ
Italie
▁Рус
Inter
urbed
▁progetti
fli
izione
она
▁genus
▁über
uesto
▁spring
▁Prin
▁seats
ass
▁avril
▁invited
▁increase
▁pred
▁groß
COL
▁Kas
▁samt
▁surrender
▁eer
fetch
▁Fer
▁decl
▁universal
▁револю
cref
治
▁je
section
ʃ
▁Years
ulpt
▁superficie
▁Akt
▁:=
▁murder
них
regex
▁contacts
▁lost
(){
非
ських
▁Von
nja
▁Branch
▁eng
çais
ícula
▁download
ceed
▁течение
real
след
kur
▁также
ktor
▁Gef
▁=>
<0xB7>
eters
▁Aqu
▁sei
lad
öglich
▁sier
Details
▁Create
ments
ܐ
aka
▁episode
Host
▁його
ović
permission
▁ave
▁mehr
▁contre
▁Om
▁Track
équ
пе
ativo
<%=
ighth
uration
Success
udem
▁Unity
ر
▁capital
▁Uri
Tree
▁sont
Syn
punkt
ja
Nodes
cy
▁historia
▁${\
▁Child
▁matplotlib
▁їх
Cmd
>=
▁év
rg
ounding
▁assuming
entr
▁production
FB
erved
ódigo
▁networks
▁одним
ents
camp
follow
▁Ob
wrap
▁вра
写
colors
▁титу
▁precip
invalid
▁Ses
▁organis
oure
SY
vez
Sym
ol
▁expressions
▁<
ilon
=/
uszt
xf
▁opinion
▁regnigaste
web
variables
▁eredetiből
***
dig
▁workaround
olly
Д
Core
utzt
▁mv
ellschaft
▁полу
▁Histoire
▁aquest
ference
ycler
âtre
Bre
▁References
дин
Verlag
▁колле
тому
▁currently
▁vitt
▁перед
▁Article
ettes
▁aug
зько
▁solutions
▁mer
്
▁entry
aciones
global
architecture
▁Entry
▁mejor
со
<0x17>
▁>=
inale
▁Context
▁fútbol
Columns
▁Num
b
▁proport
▁nej
모
▁spac
ца
kov
▁assess
▁stable
▁terra
("%
▁tenir
apolis
atr
oł
<0xB1>
Ag
▁Gan
▁Vill
rí
less
тисти
▁Entertain
▁Review
▁bisher
▁instruments
▁possibly
▁rapidly
▁religios
<0xA2>
▁compt
▁provincial
▁slider
Vol
▁dov
species
▁params
GER
?](
▁removal
▁Tro
SQL
▁reasonable
▁ES
▁wave
▁initialized
▁pa
▁nieuwe
▁Zo
";
oire
руд
ờ
▁dispos
▁profiles
▁эконо
▁partition
▁SQL
▁bekend
тет
галь
复
.*
开
▁_)
▁bef
▁courses
achi
<0x06>
directory
Circ
Fields
iencia
▁ML
▁elsewhere
▁Ś
他
▁geme
<<
▁options
fran
▁ál
ips
▁intersection
▁hab
お
-------
ång
持
▁då
▁водо
▁Fernando
ји
▁на
OF
pat
▁seines
▁upon
Struct
▁Fragment
event
én
ρ
Abstract
lob
▁ayant
▁Gaussian
';
Un
▁dll
▁mouv
▁ю
▁expectation
aph
▁bere
▁explicitly
▁nahm
!'
▁directly
osta
)](
若
ForKey
zig
Rich
▁tot
▁experienced
▁lifted
▁compact
▁Фе
▁cada
}_\
▁owned
мени
▁Filip
ints
imper
époque
▁triumph
▁hash
oven
▁Ara
íos
GP
▁elder
Cap
▁Theory
▁segle
▁parameters
▁Unidos
П
▁docs
▁encontr
▁Aless
чник
▁Crown
▁Entertainment
Cons
▁});
▁села
▁URLs
▁work
DB
GG
lett
should
▁Gustav
▁pup
▁область
▁extension
mathbb
Received
▁Module
FR
▁sets
antal
▁effet
Kind
stroke
тери
▁("
▁Chart
'+
POST
▁Consultado
▁Daten
▁Learning
issenschaft
▁Sciences
▁anc
Lab
▁Hom
▁destroy
▁silver
▁Personal
▁ад
лян
▁золо
pts
enza
ufen
addle
console
▁verified
AR
>&
▁краї
▁introduction
Ł
▁Fuß
▁Oh
inaire
▁Autor
idth
IR
liga
łu
▁crack
aja
▁Minn
enumerate
▁helped
delegate
сылки
Intent
▁valid
▁Antoine
ulated
ña
rier
▁Heil
frames
▁children
ану
▁proceed
▁uncle
show
PE
wissenschaft
{:
éal
ospel
▁chef
Deleg
▁circles
▁Upper
▁vac
INST
sed
<0x6F>
pez
▁importantes
▁Result
▁награ
▁проте
▁applied
동
▁non
▁strong
▁entfer
▁Exec
▁stones
▁feet
icola
▁Amb
<0xAF>
▁volumes
▁bytes
▁województ
ped
emet
▁constant
▁zn
▁Salt
Linear
▁компа
▁streams
ropri
▁péri
▁LL
場
zeti
GT
▁six
▁$(".
▁Dist
▁Revolution
▁USS
nahm
▁Sus
gradient
▁mess
▁Westen
▁Indians
▁existed
organisation
<0xAD>
ismiss
Dep
direct
▁XVIII
▁President
ट
▁pending
▁expected
▁south
▁hos
▁Jar
layers
▁литера
kiej
▁papa
▁entries
▁Warszawa
Mo
▁ja
▁sd
▁centre
XT
▁testim
ケ
▁Naval
▁verwendet
▁County
plement
ures
▁g
atural
archy
ave
stackoverflow
▁vend
available
мель
fur
}}}\
inx
нов
▁Gebiet
▁stri
When
La
▁version
ність
uc
▁faces
▁Oct
▁good
A
▁Esc
▁Only
▁forced
▁Wild
▁kön
haupt
лення
▁Forum
óż
▁plus
▁Sony
ission
ull
Support
Ř
Ç
fer
ε
ca
ined
▁park
лання
▁understanding
▁Савез
良
▁Entre
▁wars
▁requiring
▁sue
alph
rimin
emes
ського
▁Deput
▁attend
▁ALL
▁voyage
▁основа
<0x69>
fram
кра
yp
git
▁trom
▁connexes
üg
stoff
Module
Click
▁Twitter
ником
▁federal
ющи
="#
amb
▁Bert
▁need
▁rit
eft
▁statist
iques
thern
ég
▁Edinburgh
▁dedu
▁"+
values
ystem
▁Hamb
ос
bone
icode
CS
цена
▁Spe
Status
ical
▁refuse
▁Identifier
irls
▁trova
▁š
ßer
▁project
ih
▁Wirtschaft
▁racc
▁Domin
┐
▁Void
keit
 
∅
▁arms
▁prolong
▁labor
лем
Internal
▁tenía
▁персона
▁Abr
▁recall
ческих
ǔ
berta
Send
iem
Austral
▁oblig
▁purpose
wär
▁Matth
ADD
ivent
Price
▁juillet
AW
ancia
ু
engo
▁Qt
▁handed
▁sorte
Õ
▁/>
▁Rod
unknown
Shape
дения
▁jobs
▁debe
▁comput
▁Fon
▁Hol
▁Mountains
▁dependencies
▁leader
esz
▁needs
▁Italian
uest
Sem
▁Male
段
▁Planet
Writer
▁battle
dots
lich
▁chairman
ori
fw
▁Mediabestanden
▁называ
▁secure
▁pixel
ië
Cell
▁Response
▁lavoro
▁patr
nats
▁Kentucky
room
Final
▁boys
▁powers
ages
▁León
▁arqu
▁Einzelnach
▁shouldn
▁Sob
Fixed
ListView
plementation
▁Doug
▁Olymp
▁XIX
▁pushed
梅
dro
▁Crist
▁weiter
▁senior
YS
нача
▁enter
▁Dies
ɫ
；
▁Scient
三
▁comedy
сло
ѣ
▁respons
page
▁medal
▁embedded
▁Bond
▁Pour
▁evolution
▁li
urt
▁future
▁з
Nav
MAIN
▁ciutat
▁Supreme
▁Davis
▁VM
sigma
▁So
▁Staaten
ietnam
acja
▁tedes
▁село
▁sv
▁aircraft
▁Portal
”,
▁A
World
security
▁Standard
unt
▁stycznia
▁EDIT
▁sau
민
黒
intro
▁cler
ppers
▁anth
▁royale
▁dej
▁internationale
▁gentleman
tp
溪
▁identifier
▁Graf
▁Ce
▁Slo
▁Giov
heid
▁Week
▁Americans
над
фициаль
▁collaboration
bau
Photo
ok
reet
Bo
CTION
erves
▁$\{
▁Biography
▁Jet
▁externs
elijk
pit
▁meilleur
WID
ick
▁espèce
▁service
ná
▁res
ked
фек
▁charg
umm
▁sections
ppo
▁connected
ilers
lesia
hod
Σ
泉
▁entertain
▁tele
lst
▁By
▁Operation
▁beiden
▁britannique
▁timing
sex
description
burger
▁brit
▁ligne
)^{
▁fell
<0xF2>
DL
▁mism
ут
▁Pin
▁gesture
▁steel
annes
▁относи
ath
ický
▁naam
▁Sales
>;
▁territory
▁internet
▁losses
orney
▁sufficient
を
▁Io
▁visto
▁exped
▁Febru
are
▁estas
▁DVD
▁Action
▁env
▁luego
anze
▁насе
▁tells
▁recognized
▁trabal
▁сво
▁generate
▁concrete
ftrag
igne
▁контро
²).
▁unclear
▁ць
▁=
▁Ens
kow
▁Für
▁successor
embers
graph
▁пара
▁Exp
▁differential
▁ору
▁hu
Scroll
ul
lv
swap
▁Big
agna
▁[];
Duration
edor
▁Arm
рок
▁provincie
រ
Touch
▁beho
▁cri
▁quest
▁CF
▁Missouri
odos
▁między
▁Ask
▁disappear
OB
ANCE
▁Den
:@
utely
▁Efter
ttemberg
па
ithmetic
fty
Launch
onica
▁sout
HEAD
FILES
▁CSS
gia
▁Kore
▁missing
of
▁sehen
▁sound
▁Through
▁compose
▁cont
▁regard
▁ve
TW
mittel
▁Guerra
counter
ivil
▁decent
LIC
CCN
▁clone
ánico
HD
▁diretto
▁former
hoff
▁mayoría
▁inverse
ici
cono
нцикло
▁base
ymbol
ulations
▁Bal
▁template
Menu
▁Siehe
▁Hinter
▁minor
₀
CF
▁Ab
shire
bury
▁sigu
▁prac
izar
▁[(
▁Han
они
▁ptr
ruck
▁sap
▁references
▁Zealand
▁eu
▁graf
<0x84>
/"
▁quantum
▁Cham
igger
<0x32>
帝
Build
▁identify
▁marzo
▁mystery
öld
▁Build
ལ
▁необ
ification
PM
▁overrid
▁`
cyk
▁Sound
ru
▁library
ween
▁États
Tim
itos
erei
▁preference
六
▁analysis
är
▁directeur
▁subscri
ί
▁Massachusetts
kl
▁NULL
uras
▁einen
quel
現
▁stead
▁understand
▁„
TH
endant
メ
union
▁Inform
▁parc
▁ones
DD
▁voit
ję
▁цент
▁Lake
▁Third
▁curve
════
oty
usalem
âte
▁tensor
▁association
▁Wes
▁comun
▁zus
▁{
▁bast
ete
де
<0x4D>
▁nouvelles
▁xmlns
親
aris
▁brig
▁кла
▁annotation
Equals
▁dès
▁Send
<0x24>
small
väst
จ
cod
ammer
▁AC
brary
▁destruct
▁Customer
▁alta
식
▁Instituto
unk
▁Roland
▁join
▁but
<0x77>
native
rile
▁Bd
▁мет
▁agua
▁gek
え
▁album
Dictionary
als
lacement
▁fourth
▁norte
▁ци
▁$$
▁SDK
▁акаде
▁Gi
getElementById
▁Kle
▁wise
洲
▁ді
cita
tl
elt
чний
▁NAT
▁gli
▁Screen
yth
puesta
aven
ℤ
▁virus
Portail
务
▁prote
single
▁Category
▁rapid
▁loading
▁Украї
host
illes
▁laat
▁propose
\"
▁Мексику
xhtml
ждан
▁Christian
AppData
▁Мар
▁SM
▁actual
▁gibt
▁independ
▁voz
▁ша
▁prior
▁problema
mathchar
ected
ſ
▁smooth
▁stats
▁specified
who
now
spot
Don
▁Thompson
▁ein
▁hearing
ké
arter
▁Caroline
▁Ros
CG
▁Pseud
DI
Wait
ya
▁led
Unknown
trad
урна
▁Adam
ю
fault
▁Beginn
▁championship
Ζ
пол
ppet
ר
чні
▁Arn
▁Electric
rot
▁approaching
⥤
▁Twe
▁zoom
gers
▁HTML
▁bi
icos
▁Bent
one
poss
ít
elm
▁См
odes
▁Austral
▁Ted
▁temporada
▁ім
!!!
▁customer
`'
▁институ
gebaut
ured
▁creating
▁repres
rollo
▁acon
▁mar
▁lun
▁transmission
▁wid
zález
는
▁щ
▁fetch
▁common
▁mail
▁sports
▁telling
Yes
▁appro
▁highlight
▁представи
▁те
continue
▁gilt
▁Vic
▁hist
▁svensk
▁''
▁vocal
▁режи
去
df
▁€
certain
▁aver
IL
posa
cie
ubs
▁example
~
▁abit
aft
oba
▁indexPath
gre
бли
▁phr
▁tall
lete
⁹
▁RAM
law
West
▁быть
üsseld
illo
ctrine
▁GPU
▁Works
▁where
▁é
▁countries
aval
▁мя
skiej
▁authors
rollers
Л
▁alc
▁университе
льта
SI
ynam
ium
ické
MP
▁tensorflow
▁threatened
▁глав
anne
▁bran
ico
Ď
▁kingdom
lire
orio
tech
ска
▁Jerry
▁Rank
ύ
素
Company
▁Adolf
▁вій
▁remarked
▁pl
▁Virgin
connect
▁Sic
▁grande
Die
▁"
▁clas
ní
igli
▁surfaces
▁tör
person
▁lose
百
▁Tab
▁многи
овая
▁Allen
▁behind
▁dimensions
cious
▁dest
util
▁seeing
haps
natural
▁eerst
▁Baron
▁Amts
Endpoint
rir
▁Фи
Changed
▁confidence
▁Popular
▁betre
ats
▁df
ffic
▁existing
bes
▁gathered
▁роди
etzung
laration
▁dialect
▁sein
问
шие
ustr
noreferrer
starts
Dig
зан
atomic
被
▁application
:(
))$
▁öss
▁submission
ứ
ť
▁hem
Fail
mart
▁imports
▁Schriftsteller
http
▁just
▁exterior
▁allo
▁Human
▁insieme
avi
avor
▁cet
▁voy
▁Leist
▁▁▁▁▁
atorio
Fi
gor
≤
FX
▁Dresden
▁Stre
▁gle
▁heav
Ξ
▁Name
▁runt
▁należ
▁pract
▁bought
шње
dc
erset
Drawing
ctor
▁Blue
▁arise
фа
▁alte
Database
▁spent
▁@
▁illustrate
▁rg
ard
仁
▁sho
Point
DataSet
▁Inst
ipo
<0xCC>
▁porte
ajax
któ
▁Oxford
▁You
ct
oval
ź
ff
▁Independent
▁perfect
▁durante
rd
ocation
▁Zw
w
*}
▁inches
lipse
об
▁gens
▁Tras
▁Lie
▁Mond
auth
▁contribution
▁корпу
чной
▁была
▁wireless
▁kommt
analysis
▁Details
▁Investig
▁iphone
istory
seg
▁Bible
▁labels
roph
▁($
ibles
▁July
autom
Change
рос
▁Während
▁todas
▁století
Setter
▁разли
関
부
gren
flag
▁relevant
===
utils
▁Medal
▁voc
流
▁Studies
▁recht
Rob
operation
▁forgotten
▁▁▁▁▁▁▁
EGIN
▁Es
▁O
▁Orig
Oct
lymp
▁mathematics
▁positions
八
Space
▁crowd
ate
стре
enced
actly
▁hus
▁gén
гато
▁you
▁compr
(_
▁hills
▁Fernández
<0x99>
▁niemieck
ദ
▁byla
▁NA
)})
▁Río
▁authentic
▁anderen
▁command
▁component
airo
▁Ke
▁Mac
edule
▁don
ubre
urch
пада
▁started
Address
▁past
mai
<0x3C>
fony
▁Deutsche
▁único
ilda
▁recher
DO
imi
radius
▁tout
▁reload
▁inst
omed
xiv
▁Classification
▁occurrence
▁offic
▁users
heck
▁contents
oral
ificate
▁Lud
▁coal
ieder
▁américain
int
▁Priv
lm
stell
itable
nę
бан
▁$
bject
▁LO
▁Є
特
▁alone
▁hav
▁starts
ท
▁frequ
▁годи
CUR
proxy
àt
стоя
▁ligger
▁Ш
▁temper
town
yl
▁ach
▁flag
Git
ěl
▁июля
▁насеље
▁от
▁recommendation
▁Complete
▁Make
▁FILE
compatible
шли
▁Supp
▁superfic
~$\
▁arrangement
kop
lagen
▁water
▁Mack
▁ases
▁tiene
istance
ե
▁nei
▁pau
ible
▁Ta
ル
▁Brad
щи
▁sheet
▁Studio
▁Bek
▁zijn
▁mak
▁Herz

Pressed
▁deb
▁Don
жет
USE
сну
▁Außerdem
($(
▁Exchange
|$
ptions
▁pres
<0xFB>
ować
▁amaz
éricaine
▁reality
ION
▁Mississ
cover
▁Honor
▁gev
▁filling
supported
▁Moh
▁indeed
agg
Station
pa
▁held
▁Green
▁grands
lés
light
ultimo
prote
▁caval
▁loan
▁старо
士
acion
▁Jah
чей
▁Alberto
▁Schiff
▁estruct
▁militaire
uminate
▁starb
▁confusion
cel
Com
idget
pop
ailand
▁urls
▁Хо
▁abandon
▁Terr
▁manière
创
erca
-)
Cond
▁welcome
ders
▁UP
▁explaining
II
▁prim
!(
▁especies
ikal
еру
▁Special
▁delta
▁prototype
maybe
atal
▁hal
QUEST
бри
▁людях
▁нав
▁currency
keiten
▁setContentView
▁conquer
▁Entity
▁Chem
NB
▁extraordinary
▁hung
iben
relative
▁Regin
▁Сан
:"
ATE
<0x6D>
isis
рав
▁eben
▁presente
▁showing
▁fate
sw
ью
▁Mus
▁approached
latest
▁Mold
▁name
▁Ald
arde
▁случа
▁geld
▁wsz
▁Updated
!}
▁framework
illed
▁MA
datas
品
ellers
▁calculating
▁promotion
▁configurations
ían
Headers
<0x8B>
▁HT
▁old
Aff
▁acknowled
paste
сии
/**
sep
stab
▁call
▁employ
▁principal
▁~
enix
engono
jekte
olean
▁reaction
▁XP
▁valley
▁lux
▁air
▁changes
▁во
▁апреля
oting
▁häufig
▁stem
▁attached
type
▁unter
▁SC
▁adaptation
▁оборо
▁hizo
▁có
ough
diff
import
▁Fest
▁Charlotte
▁czę
▁Float
▁kö
▁says
修
art
▁Millionen
infl
▁Hen
decor
▁Jackson
▁Tur
orf
▁lyr
porter
ner
▁vol
▁meses
cuss
▁Quant
▁Tam
pret
▁branches
itmap
следова
▁Joan
Exit
▁Feb
▁Vas
▁Estados
▁moving
alen
▁Archivado
oped
▁uint
▁Soccer
▁serial
▁Patri
▁dou
▁Athletics
▁Nord
icks
igin
?
▁indicated
▁vo
tan
▁blanc
Story
textt
ANT
leitung
ésie
PU
Sc
▁Myst
▁Take
!/
े
▁орган
▁получил
▁concaten
▁Rus
han
،
▁Gonz
街
▁систем
Pers
▁жов
▁scales
け
indows
▁Un
▁Polsce
남
igneur
▁guidance
▁lista
▁сельсов
DEF
▁Nederland
▁Dark
"}
ipp
▁Hus
▁ain
▁Спо
▁periodo
rett
▁++
▁[_
确
▁influence
อ
▁Much
itude
▁Nov
ution
व
Pe
▁Для
▁objective
itime
▁Système
나
▁інших
▁>>>
▁nominated
ぶ
ordinates
hören
▁Bra
▁Films
ani
маль
▁publi
▁radiation
▁Landes
Rem
▁src
▁своей
不
SG
▁El
▁dod
▁geen
▁recon
▁privileges
▁Frederick
bo
comple
▁signing
▁visit
board
▁Number
efficient
uelle
integer
▁word
▁item
ategories
▁Bobby
▁Johann
▁Central
▁she
<0x63>
▁уче
▁scene
▁phen
lette
▁францу
▁exem
▁printf
▁peu
Def
wert
▁Committee
▁DR
▁nationale
▁todo
emia
▁apost
Pol
内
Component
▁Ed
irty
▁zes
likely
lyn
ച
▁Cette
▁strategy
▁они
▁Welcome
▁expres
Query
bers
▁conference
▁**
▁apparent
meno
}).
)"
▁appreciated
ername
▁pob
▁joined
▁religious
▁activation
fd
stat
Events
▁West
▁animals
ping
▁Bath
-----
impl
▁Norte
▁notation
▁nommé
▁півні
▁Britannica
▁drive
ogn
▁pobla
▁associations
▁champ
𝕜
▁nach
回
ニ
Engine
iley
▁metric
▁change
estellt
eared
▁MO
▁Л
▁pela
hä
▁turned
њу
orial
aus
▁formula
▁Joy
ioso
lings
▁Nach
่
loader
inv
size
дён
▁Ja
▁USA
locale
▁quella
action
▁shared
▁Spain
▁Handle
iné
▁chose
▁encuent
▁nuovo
▁ис
愛
▁intercept
▁optional
▁foundation
গ
▁Docker
▁Min
บ
lat
▁EL
Tasks
emente
▁attended
▁Cry
▁Column
ears
▁saying
▁teach
>:
bě
sz
那
馬
}}^
mozilla
▁oppos
лер
;`
<0x14>
▁Sieg
▁Dictionary
▁rice
inte
▁e
▁star
▁Ni
▁suivante
▁lac
Save
FALSE
▁Bry
lungen
▁jul
ights
▁Plat
▁delen
▁nome
▁nomin
▁regarding
append
ington
ded
▁Auflage
?}
ERT
zysk
Пе
ษ
},
arch
weis
while
▁detail
▁Ober
Υ
理
?”
▁Cond
ом
uted
▁nah
▁hints
▁[
helper
constant
áll
▁Serge
efined
▁grace
▁слу
▁melhor
▁ability
INF
▁blood
ṅ
▁могу
▁сентября
jquery
▁fifteen
语
▁anything
▁rates
▁dét
▁decimal
Any
▁hosted
▁buttons
▁poetry
öß
rust
tag
▁actress
▁gh
Ս
gru
▁integrity
▁ан
ído
ienn
станов
ψ
icky
Stop
▁agreed
TAC
▁Rah
bro
▁add
isms
▁Filter
▁ха
▁Bibli
▁Hist
▁squ
▁wis
spaces
▁но
▁External
▁Universität
▁Guardian
▁patient
times
\}
eland
▁volta
久
▁Ces
тельной
▁frequencies
▁её
▁Orleans
reen
▁nam
▁wobei
▁considering
判
▁Zach
▁links
▁billion
▁всі
▁vorm
äm
▁dil
▁occurs
▁Süd
ritt
▁performances
hold
▁titolo
aur
including
WH
▁charges
Rad
▁photo
▁ainda
Th
Fr
▁vi
▁sick
屋
expr
Ô
▁бы
▁spre
ocia
▁graphics
▁Democr
_{\
such
up
мена
rc
си
י
▁Janu
çois
▁coach
▁improved
▁de
藤
▁founder
internal
лн
▁Turner
lung
▁(.
chte
▁LA
▁hall
▁legacy
óm
▁refers
button
▁copied
▁généra
mel
м
мон
cola
score
▁Boolean
mess
▁hotel
Times
abei
mor
xy
getting
▁intersect
▁junt
velope
▁thre
ты
▁os
▁poste
▁marked
ragma
န
▁their
▁Graham
ар
器
▁sollte
▁Г
RELEASE
features
▁purely
▁Tier
▁И
ර
▁exit
▁Heimat
dens
▁utiliz
ового
▁Fern
Cur
lan
tait
value
巴
▁Notes
▁Videos
Tool
ému
В
▁outer
eter
astro
égl
гии
▁role
Character
il
aines
▁Nur
Los
▁thank
▁Лі
ხ
▁права
▁friend
jdbc
▁algebraic
ке
BeanFactory
Button
▁Anfang
▁fosse
ropol
▁knew
▁este
▁prep
▁nit
▁copying
▁British
usztus
lis
▁pov
agle
▁properly
Width
▁Museum
▁выступа
AC
Cat
ок
strip
Lines
▁Giul
ѫ
'.$
owano
▁czerw
awn
▁$("
▁Device
▁находи
▁start
ру
▁McK
ху
lia
✿
▁líder
▁posting
身
wt
▁tom
<0x30>
imat
▁oder
thead
▁LIM
▁Menschen
UK
▁Nation
▁exports
▁становника
teilung
от
前
ération
overflow
поль
▁Type
lea
▁Shin
▁crít
▁DDR
▁participated
▁couple
▁dort
点
▁italiano
volution
▁первый
empt
xis
▁lif
▁Region
▁rey
<0xB0>
ygon
▁optimize
波
▁akt
NSString
▁roof
▁сло
▁Awards
ной
▁Electron
▁relac
him
▁"""
ombres
unft
▁Ху
бар
▁pode
▁Nathan
▁`<
▁million
▁prima
▁Украины
Profile
松
Ι
▁acceler
▁harder
IG
ixen
▁decay
▁немец
angen
phia
kten
ande
▁introdu
")
▁профес
ersion
FO
☆
▁typ
▁Altri
▁proud
ady
text
std
<0x51>
agog
▁CPU
▁création
▁*
▁XI
Rep
▁álbum
▁кни
rio
arbe
▁cardinal
▁diction
▁epo
▁Bevölkerung
▁premi
▁sphere
本
).
▁Dur
ws
▁replied
▁ő
Grad
Ā
▁byte
▁slo
▁Promise
▁название
fection
▁Political
▁game
▁ma
▁mois
▁CLI
▁conclusion
▁visited
フ
also
iken
cept
▁legit
ipes
▁<%
cgi
▁UIView
▁overlay
ora
▁sierp
▁Укра
iet
▁Norweg
Con
ла
Sort
▁Nich
ange
▁History
▁every
▁pero
▁sitt
estic
▁AV
istoire
SSN
reshold
▁hosts
abl
▁seguito
Green
▁&=
.»
tre
▁Dopo
▁Крас
し
▁Pen
▁spe
sites
fail
setting
Ф
▁още
▁governor
<0x98>
▁Berliner
ashion
▁forces
atever
egov
ának
▁Jenkins
▁alleg
Во
ashi
▁biggest
aran
csol
▁byl
▁txt
▁де
Ok
atio
▁apar
beeld
▁grouped
'))
ниче
ó
віт
▁continue
▁graduated
▁wine
▁arist
▁union
zos
▁comparison
Flag
comp
▁Cro
▁Hitler
▁indep
▁deren
園
▁Ron
▁äl
їв
▁restored
▁transferred
▁Forsch
öt
▁minim
augh
▁Bowl
▁otto
▁$-
▁sink
▁alg
▁Between
▁článku
ń
▁Kind
|\
comm
▁dell
▁dependence
Pr
▁circular
р
porte
▁Wi
üt
▁Gel
▁Session
广
字
▁Louise
▁huvudstaden
▁rad
▁rep
▁bg
▁rég
agner
▁Time
▁miejscowo
▁обра
▁blocking
orte
ikt
нер
Ψ
Policy
ador
▁integers
▁Wikipedia
▁invånare
iff
▁ли
▁обы
ʲ
зни
▁mobil
▁fam
▁Так
....
▁edificio
▁Hou
▁Tu
▁chant
▁ch
<0x78>
▁fecha
▁CHAP
▁gray
Saint
ibt
ŋ
ште
▁portug
▁fís
обра
▁behavior
▁†
▁villages
▁escaped
示
ști
icular
Result
▁closest
▁pass
:
▁Box
▁league
▁zich
)}$
mind
▁belonged
▁insight
ře
▁км
valid
wad
业
Decimal
▁neighbourhood
▁schw
▁iv
▁empir
▁implementation
Sto
ски
Ī
▁esp
appro
elsk
шп
▁Schrift
▁small
Screen
)^{\
=${
Q
Tri
("#
ница
рис
log
тов
*`
▁mismatch
▁Hur
Transform
▁Ex
He
change
▁américaine
ithmet
pal
lobal
▁distributed
▁vär
ysz
▁contra
;;;;
année
▁Gesch
▁filesystem
▁req
▁Secretary
▁laten
.—
і
verte
▁publish
%=
Fn
ama
Wh
slice
led
▁deleted
▁Zeit
▁später
unit
idade
▁sotto
Li
▁sf
▁Gar
▁escri
▁ат
adv
▁Roberts
▁assets
nitz
▁frequent
▁reporting
▁Paul
Series
avig
▁Record
ISTS
quit
▁absor
▁provincia
throw
ходит
ო
▁Pan
作
∞
▁deliber
NOT
▁authority
 
oracle
textrm
▁tek
根
xaml
вар
命
Phi
▁belongs
▁specie
▁up
Č
▁Boy
ческая
▁Cole
▁работы
▁zelf
clk
▁Роб
▁anys
▁courts
'-
▁combin
▁zone
▁quart
кал
uttavia
kup
un
▁hence
ַ
▁plusieurs
▁criteria
▁ä
▁Su
▁{{
atives
ä
▁François
▁folg
▁poz
▁ret
employee
▁Tel
▁fiel
▁consisted
▁consume
▁Тре
önig
▁videa
▁involve
イ
▁Lab
progress
phabet
ง
ា
▁="
▁ven
▁Ken
▁Register
prü
Α
▁play
▁squadra
mun
Gu
ensemble
▁"*
szág
▁aur
fox
urance
▁Het
▁executive
▁regiment
▁где
jící
acia
iversity
hostname
Ó
ними
стя
▁channel
▁Born
haft
▁guests
idas
▁introduced
ates
RE
▁gleich
owel
▁кафе
xc
▁sect
▁assigned
▁Prom
▁Cross
▁świ
▁степени
ERE
▁Kun
▁tong
berg
łącz
<unk>
▁monitoring
ню
aturday
mean
ende
ere
woord
心
▁showed
▁persones
▁teaching
ulty
▁imped
ტ
▁Sold
▁method
scale
▁invert
▁several
lee
▁yourself
▁Серг
▁langue
▁Sever
safe
fra
нима
ettings
gra
TAG
race
▁ticket
▁Cost
▁constructed
▁мо
Exp
▁High
elligence
▁Е
lines
ref
▁VBA
ada
back
▁Gr
▁nouve
factor
&
ель
ements
▁compiled
Found
DataSource
EDIT
▁.=
ctic
▁dirige
otti
▁answer
▁Austin
▁Kelly
bell
iani
тина
hor
stand
▁Vog
▁официаль
▁kis
▁verse
▁Armen
▁Gener
▁прод
niej
Ē
▁Fried
Please
▁estaven
cont
iety
convert
Site
▁prop
END
ղ
OUT
▁Canal
ர
fect
lijke
▁teachers
Џ
▁snippet
▁voor
SB
▁government
超
▁реки
axis
▁substitute
▁<!
▁npm
▁backup
bara
flutter
▁boy
▁total
rera
visual
▁remained
ital
▁коми
or
▁divided
{#
▁среди
нім
<0xDD>
ee
ischen
▁statunitense
▁wirk
▁cards
▁REST
▁Executive
frica
▁références
▁Europa
erna
▁Ad
▁Reserve
position
lon
matically
èt
ech
▁Vari
after
▁People
itut
▁rôle
▁Москов
▁ок
cida
▁Moz
@
serial
Shell
▁Bürger
<-
▁gesch
{`
▁exha
▁simultaneously
▁above
▁destroyed
Brainz
connected
▁Henri
object
hbar
And
▁stops
ällor
▁measures
▁quanto
Clear
▁leaf
▁Line
▁використову
eqn
uce
▁Religion
▁adding
▁administrative
▁conc
limit
▁purch
▁January
▁Ski
OL
energy
Context
indre
reh
▁información
anth
USA
▁Jer
┼
Now
▁сез
och
style
um
▁andra
▁Madrid
submit
ば
ishes
enze
Gest
▁Elisabeth
▁absence
▁mientras
▁что
▁transaction
▁вересня
▁Een
▁Proposition
打
IAL
report
Up
rist
ников
ocoa
ões
▁injection
▁classific
▁professional
theless
/.
brow
company
Workbook
▁Associ
▁дивизи
▁lengths
<0xEC>
▁electro
▁fix
▁clés
▁;)
expression
▁converted
▁hoog
ší
▁plut
loat
alg
ἡ
located
Step
merk
unge
ply
▁gare
▁č
同
▁happened
org
▁leta
auer
▁Forces
▁která
▁denn
коно
▁firebase
▁Farm
wx
▁Imper
▁pu
▁Santo
ك
istica
▁protect
▁Februar
▁desert
стави
▁Dob
esar
lection
▁tone
▁dalle
▁do
anta
ı
▁ст
/`
生
orm
×
entlich
▁fif
▁overall
样
ingo
▁DNA
▁Majesty
▁Mathemat
▁póź
▁reflect
<0x90>
мен
▁shield
▁discuss
▁acknow
▁modifying
ENV
Bi
▁murm
ieved
▁деревня
▁Eine
▁fans
▁narr
▁Hab
▁departure
▁frat
line
arta
"},
ät
тный
▁mix
▁inheritance
▁blocks
Block
ading
unya
ή
lick
▁ferro
▁lean
▁becom
▁canon
▁Rolle
▁Reino
▁va
▁whis
ride
▁évol
▁duplicates
▁observ
={\
uck
▁undefined
rió
▁Office
iti
<0xDF>
▁Mo
cks
▁anx
▁gegenüber
AtIndex
▁cra
▁ssl
▁Swedish
▁dig
▁loss
дор
ogen
)-\
backgroundColor
джа
▁Fame
▁denote
ATCH
Num
ographical
▁deliver
▁|
▁Street
DP
▁aplic
dotnet
▁away
▁Que
▁Cell
▁bil
▁admitted
▁swap
▁мест
▁Util
▁datos
▁Lav
▁Tags
▁Las
▁Soci
кови
▁Holy
▁als
▁polynomial
▁States
▁brothers
frame
▁accompanied
▁был
▁Vice
LENGTH
rupt
tor
љу
▁gas
▁mock
cedure
▁generalized
▁Lars
<0x8C>
▁objet
▁principle
▁Nell
кою
ungen
▁zp
▁Illustr
▁Britann
▁handler
▁века
▁bylo
▁lived
Visible
▁Mechan
్
▁proyecto
textsc
》
说
gart
▁delivered
▁French
▁Források
ql
越
▁сем
▁Hockey
▁éch
pan
ℝ
▁Ritter
▁ки
而
▁mint
<0x35>
▁español
▁matters
▁mol
▁George
▁pose
▁schwer
ầ
▁le
unes
ت
(".
bil
▁Century
▁implies
component
пет
oured
▁franch
▁rect
othing
ják
▁Bay
▁definit
▁regul
amerikan
]],
▁realized
▁Ма
▁perpet
ordinary
esi
▁laid
▁</
▁assume
www
Proxy
▁centrale
▁Flash
────
▁Jahr
▁anymore
▁addition
liance
For
transport
Dim
We
▁te
ased
▁speaking
▁Роз
](#
contr
tax
SERVER
euw
章
ził
最
ymnas
▁Zam
▁Zero
▁wrapper
ध
▁planned
▁regular
▁getting
addEventListener
ulu
▁Гер
▁figur
iz
▁Eing
dot
▁ство
ব
Register
virti
▁easier
▁Richmond
manager
▁#!/
WS
case
▁första
▁verz
▁compared
▁categor
▁Asp
So
▁подацима
ET
ANGE
▁Each
▁его
▁mixture
лин
റ
▁scheduled
▁Дже
Format
esses
▁суще
▁Or
▁nunca
sal
▁Camer
oda
aver
Zip
▁jewe
▁контра
▁isol
else
▁Normal
▁specification
daten
<0x3D>
щий
▁Kraft
岡
AP
▁roll
мир
▁Move
▁agosto
▁Catalogue
rangle
▁Riemann
▁pressure
--
раб
Border
▁rob
▁вели
左
▁Alan
▁Pope
▁Vik
brid
α
кова
ни
乡
▁comm
qq
▁worker
▁Northern
ֹ
▁allow
▁держав
ір
ŭ
epen
▁f
ナ
MY
stone
▁Material
▁capac
▁specify
▁profes
▁Kin
▁явля
▁januari
;">
ᴇ
ℕ
▁outline
bud
ev
url
ม
▁homonymes
▁hoped
▁historique
folio
▁isolated
▁роз
you
▁accurate
▁De
uga
/-
Picture
istes
获
▁Ster
▁words
icons
кри
onen
єдна
▁Mix
ジ
<0xED>
(@
▁mesmo
voj
▁Mitte
格
Props
▁mest
▁Manh
onden
☉
"`
▁années
▁гово
▁ка
▁Ble
▁av
Code
▁accomplish
▁sevent
▁Gate
▁ministre
▁affair
LOG
▁cabin
▁Cob
cos
SDK
▁Mira
eks
";
▁Solo
▁coefficients
▁Ри
saved
ühr
ORD
▁Minnesota
▁deutsch
▁gross
▁raggi
▁really
overline
▁Аб
ช
Ħ
кон
▁trab
▁Мексичка
anchor
▁autre
▁perspective
≠
▁power
に
ugins
optional
slide
чь
▁ms
куль
▁conten
▁Lar
▁entered
HTTP
▁Cra
▁discovered
Execute
ilus
行
theory
тый
▁Woj
▁coordin
тая
ertain
hw
sol
quant
▁Things
nn
ད
▁Pav
▁factors
▁Deb
ster
ствии
isé
▁Alex
▁suggest
▁proyect
▁seu
▁retained
sig
▁Neder
▁Referencias
бин
▁searching
post
▁concerning
▁Yet
Images
▁parl
altung
▁powiat
▁inne
base
▁Labour
▁pou
▁kg
nika
▁mart
asing
äre
▁Roberto
▁encourag
script
рий
▁touch
рук
Cookie
ategy
▁estilo
zing
bove
eff
amer
എ
▁Sch
');
extend
éső
▁système
▁tram
both
▁Eli
EAR
subseteq
▁Warning
▁fund
Trans
ila
▁cette
▁recover
▁signific
▁Terra
▁host
▁dec
च
▁terme
▁Werner
▁brick
▁party
ragen
FF
MQ
ad
▁groupe
▁Baby
▁"^
MB
▁topological
美
check
\<
▁collected
Iterator
▁Lauf
▁two
▁Aff
("@
ational
▁equality
▁Hin
perm
▁dise
avid
ices
▁Je
ohl
beans
▁Regarding
рёх
▁parliament
⊙
▁исто
▁main
▁Milan
▁kolej
ingt
▁Maven
▁Yan
▁deutschen
▁assert
cls
▁(«
▁feu
▁footer
Identity
▁Vue
Subject
▁ai
▁вер
apache
zeug
▁Camera
▁impossible
▁пред
Some
clip
duration
▁Pablo
▁mont
▁según
dispatch
ญ
▁horizontal
▁webpack
▁Stream
▁encoded
▁firefox
▁assault
рии
▁distributions
Bus
anie
Filter
rus
⁴
okat
▁ber
▁earnest
▁manually
▁mayo
▁Рос
▁stated
менталь
▁veröffentlicht
illeurs
▁COVID
compos
▁sche
▁SY
▁wisdom
▁casa
▁Ned
▁industri
▁steady
hagen
▁path
▁astr
<0x7B>
▁град
▁raise
▁Jordan
▁információk
žen
Ш
▁postal
)-
Compat
CM
▁Which
▁marine
лаго
iors
ph
▁indust
ality
▁Ehe
ándose
Can
▁Bi
eggi
▁dataframe
тек
▁wide
▁Ins
▁Asian
▁які
א
SM
▁enjo
EN
dri
nea
lint
▁Никола
Completed
nu
яви
рия
▁Das
▁группы
▁ani
▁Award
▁п
▁migr
inus
▁engineer
филь
▁Your
▁immediate
¾
▁prints
▁long
▁topic
onna
├──
Card
bound
ых
▁presented
<0xF1>
ceu
▁neither
ublik
▁siendo
▁negli
▁soldier
▁роках
▁Биография
▁кото
ederbörd
isset
ample
▁FA
rod
▁statement
friend
▁Land
▁comprom
未
ihe
▁ten
reset
special
▁september
otimes
▁No
▁Mat
▁ends
▁relationship
ice
enabled
dep
▁Ot
▁£
issue
▁conv
DC
нос
toire
▁Co
▁quantity
ུ
}+
sko
▁Af
iling
Accept
osc
▁encuentra
▁moon
orter
▁ground
<0x0C>
ús
▁sol
▁coloc
elect
▁Reg
▁longitude
▁Beaut
▁bur
nit
'},
acon
uur
<0xB9>
▁On
▁http
lapse
▁watched
vas
Sec
▁bal
▁resta
▁initi
▁Identity
▁suit
▁mex
▁naval
▁Familien
íst
▁achiev
rics
faces
urst
▁Lau
▁comfort
ależ
▁black
occup
run
▁déf
odor
▁FO
▁Introduction
▁her
▁intermediate
спо
umen
▁повер
Hand
dynamic
▁gegründet
xygen
zia
▁better
▁solves
▁selon
дан
▁-\
▁Gó
▁border
list
▁selenium
gior
.__
▁publications
roid
▁Schwe
▁элект
단
,[
agent
▁variance
▁смер
▁ал
▁offset
▁zum
▁occasionally
мат
▁poč
astern
há
▁През
▁Index
▁traffic
сто
▁Literatur
▁Argument
▁generated
Movie
石
▁alive
ew
▁ambos
▁zde
▁similar
Alg
▁Sister
=.
을
ote
▁”
▁Please
ivers
▁South
▁administrator
▁colours
▁поли
▁Hu
”
▁Nations
imon
▁DJ
ría
▁poi
fico
heits
ested
ymi
iante
▁query
soap
wa
▁Philip
сть
▁championnat
▁awards
rez
▁retra
urd
▁army
▁enorm
▁solem
ʁ
▁opportunity
▁collection
lit
PI
pub
Maybe
мах
hai
▁javascript
▁verd
reso
ger
▁discover
going
▁Golden
rees
▁graphs
▁bund
▁once
icip
▁Bilder
{%
лении
▁canton
▁Sele
▁Fritz
▁pover
▁classification
enie
한
▁Mai
▁mask
._
pd
▁retro
▁torneo
sub
▁cv
▁radio
ѝ
▁Hav
▁Rechts
▁eager
frac
дер
▁Rav
ностью
▁Dres
▁IC
SEE
▁boost
▁interesting
▁tyl
▁curv
▁efficient
бю
lov
▁conce
▁shift
warning
▁continuous
lp
▁Domain
▁moral
ћа
▁não
ფ
ug
ह
two
styles
selves
}](
▁gla
▁monuments
ank
änn
▁assim
▁front
▁licz
▁reign
▁че
▁Berg
▁cualquier
Queue
▁Notice
▁Watson
▁nazw
fort
▁collapse
педи
Brush
サ
full
+'
mes
▁ssh
Arg
ous
▁raison
▁груп
}{|
▁font
ős
achment
∗
▁BE
₆
▁quindi
▁Types
▁loads
ograph
rade
▁sorting
▁Agr
▁installed
LOB
exit
ág
▁bet
cción
ask
▁sab
▁Airport
anned
▁DATE
▁kal
▁обла
mysql
Timer
▁ELSE
ccion
gar
▁course
func
setText
Year
glass
▁reward
rolle
▁Pal
▁últ
▁cura
▁нау
▁providing
▁fonction
<0x59>
Associ
▁polym
▁Whether
▁recurs
▁passwords
▁participe
omorphic
▁bez
▁result
▁bigger
▁related
▁modal
▁deeply
TE
▁scenarios
für
▁Specific
ifferent
amil
▁my
動
▁самы
rior
▁fall
Condition
▁super
increment
iddle
▁Estado
aign
odge
ozzáférés
▁ottobre
TA
ника
vn
▁attempted
aton
member
▁violent
▁заслу
▁Originals
ITY
Alex
}&
▁guilty
▁agricult
画
▁lingu
eller
єю
▁running
غ
▁detailed
▁resort
▁Firebase
▁closed
bigg
▁Les
rupted
eqnarray
amount
▁médec
▁cambio
▁veh
ノ
▁issu
rom
▁Hr
▁Mod
▁["
▁PK
▁mel
▁nie
▁Dep
alpha
HTML
cer
▁across
perl
rams
walt
CON
fah
subject
zenie
тного
▁outras
▁scores
Country
PASS
core
foo
emein
ublic
▁zwe
)$.
Ù
ße
▁Vern
unnable
▁exposed
asse
▁zvuky
▁elements
▁cla
▁Isn
Simple
orr
))`
▁onder
example
Expand
ould
▁nous
▁Mas
anced
▁hint
relax
▁nr
ouvern
ниц
iterator
od
โ
nic
▁stay
▁\
ros
ímp
▁departamento
amo
▁newspaper
▁него
ot
Accessor
Contract
▁extrem
*(
▁aggi
Alert
▁данным
ợ
neur
▁eastern
▁Mitg
▁Cold
klär
▁Ministry
au
CCESS
==
▁között
▁voting
Arr
юще
мії
icut
▁Mason
cito
▁mil
▁',
▁animate
IOS
choice
▁ano
,(
▁implementing
➖
InputStream
Resources
▁Sort
▁Stud
ira
▁Ал
atform
zen
▁lib
ipt
▁implement
▁Cand
IMARY
чни
ਸ
▁Einzel
▁Magic
▁HMS
gamma
▁Statistics
mania
▁Libert
▁motor
▁благо
▁elif
puis
▁Transfermarkt
▁clarify
▁xs
Offset
▁STR
ців
nothing
▁fert
九
▁sqlite
▁tested
eltemperaturen
▁став
burgo
▁menos
▁cout
laz
▁precisely
▁stopped
angle
▁zd
ilation
anha
бора
▁MVC
WIDTH
▁culture
▁окон
fert
▁główn
ajn
▁Jahrhunderts
ottom
▁crisis
▁disappoint
iate
▁Посилання
▁Bes
MIN
▁-=
▁KEY
▁derive
Mock
esehen
lor
▁Body
▁Carter
▁Grey
▁Initialize
▁bre
▁représent
▁téc
vest
▁Fran
Di
ateg
▁years
ay
▁Hamm
▁її
换
ത
avigator
▁revis
abase
▁Meteor
▁man
▁bul
▁Seiten
OPT
part
bling
▁communities
▁mus
▁quelques
▁функ
▁arrays
aca
▁hour
▁participation
hus
дно
▁dép
ling
стер
▁supplied
tmp
▁GL
▁analy
▁avant
▁topics
cent
arten
keley
▁giant
▁horizon
babel
▁serve
link
▁Ran
▁free
▁heeft
▁Liste
▁Vi
▁semi
ți
▁perl
ăr
ес
quer
▁adopted
ordo
▁Radio
▁authorization
ateful
▁military
urname
▁Zel
urr
▁hyper
▁rhs
▁kam
▁poll
共
▁parent
exists

uale
lient
RECT
eben
tó
rero
ския
used
▁insert
▁Windows
▁Société
хівовано
▁punk
书
ன
iler
tto
▁minist
origin
ffe
adapter
▁ass
▁claims
▁вла
▁possession
▁London
▁Beau
naio
ická
sty
atte
terne
кі
⁄
▁м
▁Assembly
▁Stuttgart
▁appoint
Use
▁Lak
▁tied
▁tradu
▁взя
▁stir
▁Sure
phone
anda
▁Geb
▁Mol
▁helpful
力
▁Fellow
hex
▁Read
aging
Raw
▁attract
"].
▁velocity
owane
map
▁protagonista
ternoon
▁Pon
agini
▁Deport
gest
▁primitive
asser
Handler
▁sind
Vertex
▁Ord
▁Medi
き
▁solved
Tu
loyd
par
atica
▁strat
disable
▁Use
currency
your
▁Bat
▁faut
▁hers
a
uing
▁prayer
▁cord
▁која
定
▁copies
atherine
序
▁declarations
ász
▁Helen
▁calc
▁watch
cera
Dynamic
▁уже
Å
rek
▁historian
▁prod
)..
▁Prima
ért
ierto
▁miser
missing
Bad
aling
▁par
▁Juan
нах
▁kur
▁selbst
▁hon
ций
Paul
жении
▁Value
vers
▁río
յ
▁Admin
▁households
▁tre
White
▁statunit
(),
ції
▁bog
year
公
numerable
aser
URE
alleng
▁Tok
▁fire
exp
cast
▁Ressources
must
क
情
▁Deux
▁fic
checked
▁##
দ
▁Social
iso
ciale
▁fost
▁Fed
▁present
▁Salvador
▁Book
notify
▁divor
▁explo
▁san
ֵ
eed
QUE
èle
реди
▁persone
usto
ichi
▁hur
▁nebo
▁deze
▁Ingl
▁Mexican
セ
▁apo
▁queries
nder
Project
útbol
▁entropy
vá
▁Abb
англ
▁Urs
Reg
ox
print
▁области
▁sovi
wich
▁Nick
bn
▁Magn
lles
▁турни
Und
ocs
▁something
▁package
actéristiques
▁checkbox
ponents
onders
Attr
css
法
=\"
цов
▁Ziel
vy
цу
▁Hun
▁brid
ского
▁huit
▁проек
heel
▁given
▁proves
apor
atience
时
sen
шин
ไ
today
▁assum
▁primeira
▁Polski
something
three
тельно
▁alten
▁con
ometer
▁promote
brace
itori
▁Lip
▁centered
▁этом
▁elet
gems
aset
▁unos
▁drivers
raste
▁depend
self
▁quickly
▁VIII
▁environmental
Const
▁studierte
▁Regie
их
vent
▁До
下
Bottom
▁India
}^
otlin
▁fires
▁Island
count
▁fly
subsection
▁puntos
▁Kinder
▁Param
stelling
▁Uruguay
▁:(
▁daher
posta
ständ
ufact
是
▁rif
▁д
▁oh
東
ष
▁mental
▁Braun
жды
▁CGRect
▁Random
▁idle
▁jo
decode
▁determine
<0x34>
constructor
▁nos
▁femmes
▁strange
▁ger
pository
ственно
▁hin
nut
ula
▁affection
jack
FIG
aping
éch
▁Preis
▁buy
(:
ün
▁followed
▁стали
Like
▁gestion
€
▁differenti
носи
<0x40>
▁reason
▁und
STRING
uso
▁mezi
▁spare
heit
}}^{
보
ições
ERY
dade
стран
>,
▁Medicine
AX
arios
imoine
▁Spark
▁Syl
▁=~
bi
see
subsubsection
èse
WriteLine
▁IDE
▁subt
='
▁Unterscheidung
Cal
esian
▁stars
Static
བ
▁achieved
▁active
DAT
▁које
▁населення
iembre
/\
Choice
▁Technology
leaf
▁administration
▁pleasure
amps
otte
▁Order
licated
▁Erd
ђу
▁Rib
▁chrom
▁É
▁Kat
▁Vier
ਿ
TD
ített
continu
此
ぐ
▁True
▁тех
ided
ließ
モ
▁Benjamin
▁volunt
▁effects
▁interactive
ROR
▁Syd
IF
Phys
▁seizoen
regon
▁autorytatywna
wehr
▁Champion
▁Observable
▁château
₉
▁')
etry
ente
átum
ワ
ва
軍
▁why
cé
▁из
ち
置
▁muse
ITION
▁száz
发
LP
.),
▁fem
uture
му
')`
▁Sol
▁controlled
▁ox
▁Росси
services
жі
фер
нем
date
силання
▁automatisch
▁faint
▁Bulgar
▁International
ferred
Checked
▁personally
lot
inject
▁boxes
utf
ク
▁center
time
ín
Hub
▁engaged
▁duc
}_
()}
ые
ᵉ
)\\
шло
children
▁siguiente
▁wet
]$,
▁Düsseldorf
▁Frame
▁intu
▁packets
▁gering
pgf
layout
▁heard
prüng
▁Rain
okes
▁Walker
sdk
mu
▁Eclipse
▁Yeah
▁accepted
▁dinast
▁estos
▁trig
▁rural
▁пун
Session
▁warning
▁rå
▁cut
atura
pc
ě
▁buried
스
estra
attributes
hon
▁находится
RESS
кли
ответ
ী
▁pochod
yd
▁leading
ै
ヨ
▁fine
▁strength
etime
▁Cass
imgur
▁Fen
▁Report
▁К
kb
▁су
zent
villa
ník
▁resolution
wig
`).
▁digital
mathbf
▁oper
anim
▁appointment
▁})
▁Mail
cies
▁Debug
itting
liver
▁involved
া
▁szó
math
▁enthus
лін
endpoint
ϵ
▁electron
чита
▁typo
_;
▁adj
▁act
XXXX
▁JVM
▁mascul
channel
|
请
raf
gly
▁servlet
▁USB
▁Barb
森
▁CI
elements
▁Baden
iveau
▁deput
▁musste
ando
just
▁problems
▁resto
▁user
zös
oved
▁доро
▁Ende
гли
▁meta
▁ру
▁covering
▁Many
блі
▁Et
▁cop
▁Jane
ribute
▁review
`
ina
▁Define
zin
quare
ген
▁tuple
▁maggior
▁veel
和
▁Glen
attach
жно
viders
▁clusters
▁soil
pb
ellan
▁contained
▁uncertain
▁Од
▁want
eras
ो
▁Schule
▁abril
▁coron
▁presiden
ала
▁okres
.;
▁fant
kań
▁Nam
elin
atting
sort
▁Nav
▁кам
iono
чер
ных
▁Si
▁mir
▁snap
▁swift
.");
▁Übers
▁окт
ⁿ
▁alcuni
<0x6B>
jm
▁painted
yellow
clipse
sto
▁Neb
vre
Χ
▁Rad
seconds
▁Tun
ouch
tol
ąc
ат
ae
sklär
▁validation
uh
▁intensity
▁Становништво
直
itect
▁buffer
open
▁om
roit
пера
▁ár
мы
ming
▁ih
voor
creens
łuż
还
they
▁closely
▁klass
▁tutte
isu
urchase
▁Crow
wen
▁спо
▁determin
KS
▁secretary
inu
Desc
▁Männer
ография
▁nom
여
▁vir
lect
ській
▁litt
icul
▁Wikimedia
putation
բ
▁CHAPTER
▁dimin
********
▁heute
▁point
={{
▁Det
▁UTC
▁nob
krie
▁tribe
▁propos
ция
hit
ifiz
izzazione
nab
sil
▁Glasgow
▁Login
▁district
adata
▁pd
alous
▁lange
▁closure
Life
đ
▁générale
▁advers
abilities
▁près
Christ
irie
oupe
▁Bush
untu
▁unnecessary
▁пер
▁An
▁trade
sa
\.
▁мона
▁sequences
cs
Child
ado
riminal
ängen
▁Application
ained
Are
র
▁verb
тури
▁editing
ule
▁menor
aison
▁repeat
ких
▁parad
ovy
ческий
▁household
kes
▁compare
▁мене
▁SSH
Email
Files
▁relationships
geschichte
">
Hozzáférés
dim
▁Chen
▁crown
▁großen
▁MongoDB
▁extracted
▁Werk
▁scholar
Ill
▁killed
▁su
чёт
▁somebody
▁brilliant
þ
▁traditional
Dat
▁fiddle
▁Route
▁кон
▁abstra
▁Ku
Utils
▁Gib
▁streaming
ње
▁cul
▁Eva
王
▁obst
▁"";
asz
сор
▁Saint
midt
uder
гор
▁Indep
▁Ruth
▁muchos
дя
▁`:
View
▁Schaus
▁hand
▁Two
frent
▁medicine
istischen
▁supre
▁serv
▁Television
nect
ções
▁sync
('
fully
Real
ése
▁nombreux
故
▁cup
▁·
▁primera
olation
шего
▁resist
▁guid
▁estable
пу
▁Ung
via
ierung
terior
swer
ético
▁ignor
▁btn
▁radical
â
▁SET
вня
▁servi
PD
▁од
▁stress
▁a
<0xA9>
igma
▁remember
▁maintenance
▁Bureau
▁два
▁caus
aster
ϕ
▁consists
▁container
uries
operatorname
orn
▁|\
▁zij
▁metros
▁err
▁force
▁viele
questa
reek
overn
usz
▁morning
SR
▁Corps
▁Sul
LD
ads
background
▁Unless
▁silly
ан
cc
▁computation
cije
force
vil
▁separator
aper
ensa
undes
▁single
▁NOT
门
Pa
▁artists
▁chemical
▁symbols
Cart
datab
▁forg
▁innerhalb
▁familia
▁attributed
gen
azioni
▁Produ
writing
theme
|_{
▁там
ollary
▁logical
▁---
▁vu
as
▁aligned
▁Sav
lo
▁misunder
▁голо
develop
guard
我
▁като
▁Eur
град
▁numpy
▁torn
▁connections
jets
▁Alf
ogli
▁Externa
▁anger
▁pure
▁сери
▁beauty
▁importante
▁участие
▁person
▁such
Drawer
^{
▁comenzó
erme
adém
▁AR
▁flask
će
lap
Comm
▁pr
▁records
▁amid
Random
▁Esta
Board
actér
▁Gil
▁drink
Mode
prüft
жной
▁ske
▁ба
programming
})
folg
ustration
<0x2D>
market
義
trigger
组
▁auch
数
天
▁scène
▁Abs
▁wheel
anger
rift
片
▁signs
▁проду
ça
TextView
message
▁liked
▁parentheses
▁opened
▁matter
.<
arlo
ʎ
▁embar
esia
alles
hbox
▁Anthony
Fa
schied
▁aper
ве
lined
ா
▁можно
▁сі
▁Appar
▁screen
ViewHolder
сса
▁це
=="
▁size
\}$.
▁efficiency
bot
variant
зи
Ig
▁Publishing
▁soft
▁medieval
▁éditions
▁Cas
ypes
agon
▁Point
▁dirett
zej
น
▁obvious
▁nich
宇
alse
▁iteration
▁dropped
▁javafx
▁också
Model
supp
▁wouldn
,”
ɑ
boldsymbol
nodes
▁URI
▁gravit
kit
ural
gang
andra
▁Republik
▁équip
▁prosper
plit
▁France
istration
▁govern
▁Party
▁rich
▁Peg
▁switched
▁к
▁floating
ComboBox
apps
Created
▁cried
bben
▁фло
▁dens
imenti
▁Евро
irable
▁wür
▁delle
Xml
ñ
cb
ron
ąd
HA
cdots
പ
SH
解
olen
'
°
▁prime
▁pas
Studio
▁collections
▁situated
▁Intel
ния
дент
▁Влади
wiki
▁secondo
der
owan
тий
▁час
▁bor
▁since
erde
${
enas
arium
Case
▁Picture
▁хи
▁Stati
▁dob
ographique
▁immedi
知
bie
H
▁Method
========
▁interpre
▁passed
коном
▁aujourd
urs
▁react
▁sides
orge
昌
•
▁energ
▁update
▁Españ
▁mes
="${
▁oficial
Collection
▁platform
each
▁Long
aneous
▁Rel
hardt
eng
enty
fortun
▁clothes
▁Nue
itants
Error
▁Einz
umerate
▁Nep
▁invariant
pack
▁Tot
▁vagy
Byte
ши
▁echter
anning
云
oh
▁populated
▁weit
▁primary
▁autom
.“
otrop
▁quello
uden
iba
ft
▁pattern
staat
subset
unta
▁Their
grid
▁trif
̍
▁initWith
▁themselves
▁Ter
▁noviembre
▁uncertainty
▁Isra
▁Friedrich
clear
▁YES
ivement
▁towns
﻿
▁Opera
▁cm
▁immediately
▁wind
▁«
ного
▁Dublin
▁finger
▁walls
стра
льного
bund
▁utwor
folder
⸮
orb
▁trat
ferences
₹
̲
/(
▁Prince
leqslant
▁Lane
tz
aa
▁nothing
ucion
gnu
рал
▁massive
lichkeit
ual
това
▁continu
▁syd
we
▁Format
▁своего
Gre
hoz
▁noch
▁Toy
▁inv
▁Having
▁Petersburg
▁consequ
ald
izontal
udo
右
giore
zef
▁Angular
▁Lad
eteor
Mil
eur
▁IS
▁belong
specific
▁mouse
▁storia
▁los
limat
▁система
SU
▁nuova
ochastic
▁triggers
сад
▁click
▁repr
▁\"
▁obtained
▁finishing
▁полови
wid
▁Volk
▁announced
▁bash
▁mountains
▁validate
elivery
▁fare
ings
▁costa
\}\
▁föl
imas
▁Function
führung
ем
▁latin
▁particular
ebol
▁Вер
▁sexual
isser
▁effic
сті
▁serie
▁repet
xp
̣
▁almost
▁wo
▁compla
▁conse
▁socket
anguage
ν
▁med
can
▁StringBuilder
▁ras
ED
вал
messages
▁trailing
▁truly
▁vé
▁walk
ondissement
▁вместе
▁Flo
replace
▁robust
▁sni
jet
▁zal
▁Besides
▁cells
▁gł
▁również
▁ž
holder
ília
кипеди
це
Zygote
▁escol
<0xBB>
▁replace
<0x5E>
eken
apa
▁Perm
▁Lan
▁Yu
▁bin
ган
▁pół
analy
mb
Liter
▁ро
▁sle
isée
]['
depth
њ
assoc
Errors
ifica
вати
нице
ე
older
iten
nitt
▁Is
▁hacia
äd
дж
▁nörd
тел
▁lamp
т
anche
ches
ктор
▁marc
要
▁export
▁combatt
teenth
▁PR
▁km
Pres
chos
arial
library
wol
<0x87>
Token
Classes
▁type
▁Š
̂
▁Democratic
▁ubic
rene
>\<
▁agli
▁handles
yci
execute
▁added
irement
▁contr
▁kao
ʿ
forEach
ზ
ignore
leton
WI
<0x7A>
getString
чення
penas
ley
tring
}^\
ї
▁although
mysq
▁ek
▁ла
igte
▁float
road
▁ros
ності
▁Montr
▁образ
retto
country
▁Coll
种
гани
▁walked
Id
/'
сс
▁laws
ewrite
▁Mant
OU
▁França
▁mi
▁fails
▁пре
UD
itaire
▁cerem
xelles
▁condado
▁со
▁zeigt
▁Hud
▁Saison
box
esser
there
fred
▁delet
orry
▁Clark
bd
ènes
▁madre
cluding
verse
ò
▁ol
▁сооб
▁resistance
write
▁Kenn
▁Zum
XV
▁"<
▁человека
▁sentence
ží
ORT
▁бри
▁thrust
▁conservation
▁só
▁Brig
▁dark
тон
ugust
▁Therefore
▁Parent
▁neighb
▁sense
▁Í
RENT
¯
▁Ps
}$
Comput
vice
Print
▁DB
▁Tal
▁applications
▁lazy
uela
².
▁esterni
andro
ʔ
ibly
<0x79>
∪
▁Aus
Other
▁Hem
ror
▁director
▁facing
▁р
健
dale
pas
▁format
▁gepublic
VER
hren
ighed
▁narrow
чно
▁исследова
Marker
седа
▁circ
▁Auth
Po
Ä
▁Kur
Direction
aret
atie
ヤ
▁Algorithm
▁Alc
ро
̃
▁Ap
▁incoming
▁соста
rap
▁affili
-+
éro
μ
▁counting
▁ker
fol
▁пере
▁съ
ি
▁Local
▁diffusion
uten
▁Wor
Multi
ello
stock
Who
▁located
▁America
▁https
last
▁Edu
▁short
cr
éma
▁serving
▁inhab
▁Ко
▁fois
▁филь
​
▁inter
▁influ
FLA
▁imp
▁fraction
Runner
▁au
cem
∉
чи
▁juli
▁Che
üh
▁recursive
äß
branch
▁/
▁inequality
eign
тных
▁chanson
▁Чи
▁alarm
▁Бри
Short
enia
Eq
inent
île
▁taste
òria
▁Light
▁Ton
ז
Loader
pert
Res
ව
▁Year
зм
ays
цький
▁Californ
▁keine
▁berg
Product
▁break
▁pair
▁registers
▁tej
요
▁фі
ement
▁wechselte
▁Rule
will
▁dummy
LOC
수
ski
▁ersch
runner
▁др
ibil
▁pow
UIView
Calcul
Serial
▁conn
kotlin
▁општини
▁сто
▁soldiers
▁Российской
▁abund
cket
хов
)));
ordnung
貴
除
Har
sch
대
▁том
aki
▁will
▁Victoria
ane
Impl
▁Dem
▁Valent
ało
▁execut
html
▁myster
▁pipeline
вав
▁egy
ी
`;
Primary
▁Digital
▁cargo
<0x3A>
▁Kompon
ℚ
▁characteristics
▁deleg
vert
▁Room
▁foo
▁incred
▁mistakes
ὑ
▁sieben
ver
▁січня
頭
시
ousin
▁same
▁televis
yaume
▁bland
▁SUB
ych
hed
线
▁monarch
lu
▁Géographie
▁contributed
▁Audiod
▁investig
▁Group
▁gu
tfrac
)`,
ID
Look
DS
кий
▁simplified
▁wil
▁На
ані
Private
)}}
Obrázky
akespe
▁Rem
▁evalu
дели
▁>
▁▁▁▁▁▁▁▁▁▁▁
提
▁Ged
－
▁informations
▁struct
prop
ourse
],
▁Board
▁cases
Role
▁Upon
ọ
▁pocket
▁Cart
Office
ardi
autre
izado
urls
сня
ahlen
▁Republican
▁Serv
▁protest
ossa
▁außer
▁servants
▁importance
▁descend
Ṣ
▁aute
▁kwiet
éri
▁anten
wię
▁сайте
♠
▁Ges
⟩
博
▁América
ស
▁Estad
▁Fred
aring
▁czas
ской
▁NASA
▁Со
table
vat
▁json
NotFound
▁Staats
WN
iture
▁applicable
▁apparten
▁invece
▁embed
tbl
▁Le
▁V
居
ContentView
▁пе
removeClass
pont
▁Systems
izza
aming
bibli
len
▁officially
▁Military
▁somehow
ürgen
Score
ķ
▁algorithms
jections
▁sans
school
▁specifying
▁Athlet
設
nection
զ
ellite
▁van
▁Ис
circle
lain
удо
äter
▁rec
%;
▁Hog
<?
token
▁ISO
▁memb
▁dense
▁trees
▁pp
▁prepar
res
次
)+\
▁svo
Alpha
ші
▁Washington
▁universe
▁cl
▁française
ban
▁Premio
▁priv
ización
▁za
▁ال
forum
").
even
lav
▁emer
▁teams
Hy
▁keep
▁complexity
ruby
oups
ose
▁entities
inding
Es
▁canvas
hör
▁Arag
首
osos
ungsseite
▁satisfaction
dex
▁sympt
писан
kadem
▁capt
▁aby
rank
pieler
ression
iod
▁attribute
changed
ité
▁feelings
▁register
extensions
set
▁boat
▁Hil
mans
▁Lima
▁бор
hner
▁Age
▁erst
shape
▁paid
ático
story
циаль
rol
▁careful
paths
▁cor
)^
▁општи
osen
gg
▁Č
kill
ib
▁master
measure
nl
▁But
ată
მ
obj
▁кораб
▁saves
ucha
rum
▁muerte
ь
ewnę
▁explic
affen
▁sex
endar
нен
▁swo
▁études
ardin
estro
sim
ätter
ight
▁Pere
▁broken
auté
▁launch
▁Vector
▁mundo
yna
arto
сер
▁trained
Include
▁Eric
▁une
▁шко
ttp
▁select
▁Brothers
▁Eg
Library
What
uts
щі
▁Once
▁Student
▁фо
▁demsel
▁magnetic
ierre
Submit
▁теле
Could
<0x75>
range
ள
▁gentle
▁videos
▁Blo
▁Oficina
▁памя
filters
query
ührt
itional
▁projects
argin
▁duch
▁desenvol
▁Policy
p
…
iclopedia
icki
▁Jim
asp
appe
Expression
▁consist
嘉
rand
▁série
▁Jefferson
▁unsigned
▁різ
▁escape
▁happens
INFO
<0x1F>
ограф
út
таль
▁cancel
rin
▁originally
―
▁є
▁Health
▁enumerate
alter
раль
▁aston
ൾ
presentation
▁This
ним
▁pointer
▁Grab
▁Church
▁intellect
erg
▁disposition
hung
▁readers
▁власти
ella
utorial
More
▁this
ant
▁деся
▁энциклопеди
▁OpenGL
▁\)
spect
▁imm
пан
▁vesc
ја
▁nev
());
")]
SW
)*
▁concluded
ains
vić
igh
▁latter
▁wij
▁як
voir
народ
uler
стрі
▁threshold
umin
altra
▁Ti
▁wing
og
ври
▁arrive
iss
elia
<0x37>
▁Ci
<0x58>
али
Warning
choose
ку
▁Camil
▁Effect
▁cerca
▁namespace
▁Isabel
▁Neben
▁Arthur
optim
▁Cup
anon
",
▁tips
PT
<0xF0>
cm
params
▁sentences
го
▁togg
▁систе
Side
<0x12>
arda
нове
ся
zą
▁trains
▁indicate
nost
David
nero
cribe
▁Portály
Application
category
po
get
▁Dir
trees
▁liga
isi
Autres
vera
▁angle
para
rails
eded
<0x29>
вин
ninger
ремен
▁sem
▁util
▁grâce
routes
▁north
▁Height
бро
▁Four
⊢
▁Gy
▁producing
dienst
▁segment
▁Tourn
▁hide
atoes
Ы
▁Iz
▁Three
▁forms
▁sympathy
▁Ос
▁О
торы
▁Ley
virt
▁sept
▁із
▁NC
▁République
▁направ
arily
▁cele
)\
rat
▁idea
Sync
▁studi
▁}}
진
Under
струк
▁slash
...
▁like
藏
cej
mers
ways
Report
greg
ån
WebView
▁sorry
mult
明
▁categoría
<0xC9>
▁excess
riors
▁Sv
weg
nach
criptor
▁Leo
▁dois
▁instal
▁commence
icult
kom
||
▁does
hpp
keep
▁Ain
▁Springer
▁das
utos
▁achter
▁Ser
ITable
atre
Des
ние
▁timer
halten
▁відбу
▁programmer
宗
moz
可
▁Eliz
▁tir
▁enjoy
▁Wil
▁robot
▁ener
"><
▁removing
▁As
idé
aux
▁WHERE
▁bounds
▁gone
▁Sin
geon
▁company
gresql
});
▁satisfies
▁announ
ссе
ampio
▁stal
▁Mode
welt
aggreg
▁albums
▁wp
ppen
urban
Meta
ipart
▁sharing
omet
SSL
შ
étique
produ
inflate
▁browsers
isted
▁jelent
▁});
джи
▁redirect
icus
ֶ
▁signed
until
schutz
uffle
WIN
進
▁indicator
HL
connection
▁после
▁secolo
ience
▁europe
▁friendly
▁comes
▁Cu
▁Alternatively
▁людей
▁этого
▁Msg
▁shut
▁vit
▁%{
)}.
▁concentration
ores
→
Where
bbe
▁When
▁his
änge
▁TLS
▁estimation
Extension
uti
▁scop
▁amplitude
▁skills
omon
rig
▁mér
▁sep
ének
▁p
▁treball
在
\",
▁Samuel
▁pelo
lose
²
ल
▁arrest
▁bool
▁épisode
▁interpreted
église
LOAD
▁ax
▁Architecture
▁чем
он
▁FB
▁Ky
mv
▁desc
bon
ra
proto
havior
Single
▁ran
▁stesso
confirm
elij
enn
▁store
ロ
acre
atro
olan
▁Tex
])
kazy
▁резу
zyst
citep
兴
▁Ev
▁Ut
▁drop
Nov
itis
▁mère
ј
;"
▁Micro
FM
bt
зво
▁actions
▁фи
▁chr
▁Boliv
Blue
aks
ited
пло
gi
▁divine
▁Сер
zial
▁including
isseur
no
Of
▁attributes
eper
ières
ος
▁Васи
ție
atable
▁Prime
▁worn
▁seria
illa
▁mk
Proc
goto
лено
langle
▁XV
▁um
▁out
▁zem
▁correctly
▁image
▁datetime
▁seq
GEN
bus
etter
ții
▁Championships
▁placed
otted
éli
▁beste
▁Fil
▁Germany
▁ace
ậ
▁seems
.)
--"
jev
▁Fox
▁Frei
▁numerical
▁prede
功
<0x55>
▁fille
▁orders
▁hover
▁sh
김
ential
ља
▁inve
▁metrics
ąg
Camera
formed
▁$,
atern
▁phrase
All
egyzetek
tal
▁theme
▁forma
▁pret
стем
BOOL
▁уда
▁marriage
pres
▁Manager
equal
▁Це
Texture
▁elections
▁Tele
▁stycz
ologe
Bro
$}}%
geben
ycz
▁Hotel
Home
马
ountry
▁Hudson
fish
▁Centre
▁ir
ս
▁Beng
Empty

eln
тки
▁pdf
****************
Game
▁apache
▁acqu
▁Bug
▁мм
▁cres
▁mechanism
ниш
icación
!!
Equal
▁renew
▁Cleveland
çu
▁instanti
▁unnecess
FORM
iring
▁Ko
▁wait
ʷ
▁es
이
▁std
▁zoo
aire
kim
iden
▁popol
▁scaling
▁estadounidense
▁Argentina
eme
▁passenger
▁remp
▁twitter
▁х
▁no
&#
:#
▁';
▁looked
▁После
▁producer
(!
gesch
icket
▁DEFAULT
▁Sak
▁compatibility
ципа
Arm
▁вклю
ences
lime
onie
łoż
⇔
Hel
▁upper
의
ону
NU
кан
▁сти
<0xBF>
▁Channel
▁derni
ĕ
ány
已
▁commission
oke
▁[],
height
▁described
▁Mitglied
did
asted
шение
▁Borg
▁Normdatei
istr
ERROR
▁Lisa
)\,
Directory
▁Sum
▁race
oreferrer
∼
▁marks
ablo
ју
▁literature
esta
▁Kriegs
▁ress
halt
▁oct
▁когда
↵
戦
icker
ege
sk
▁Tak
▁consp
▁советский
ститу
ública
aqu
protected
▁ba
йт
▁blocked
roll
▁formats
рез
acz
▁Barcel
▁fier
ishi
rm
▁king
▁conjug
▁terrible
▁ex
iei
▁rör
hum
▁avo
▁episodio
▁many
stre
blo
вало
<0xFD>
uer
pta
ɪ
"]
▁fur
▁inaugur
▁zespo
▁weapon
▁Bla
Editor
▁Chal
▁formation
▁locate
▁means
ข
znam
▁counter
!.
▁Miller
▁Bran
▁rencontre
év
г
enant
itudes
▁meas
Default
▁xcode
oman
ð
AGE
GO
▁educational
▁indexed
▁estimates
Scope
建
legend
cfg
▁француз
▁db
▁individual
ности
▁Cert
exec
▁pont
▁--
▁siège
Out
nten
▁Market
▁csak
ependant
▁Conseil
▁home
▁Row
▁ohne
▁insect
▁авто
▁nak
▁public
rooms
▁range
▁states
yn
нва
密
örd
ne
▁Articles
▁String
▁Unable
шла
icum
ze
an
▁Park
▁слова
href
written
negative
<0x85>
▁Jó
▁how
▁Insert
▁Anal
瀬
ugo
animation
selection
usepackage
igue
ius
ospod
iero
▁оста
▁button
▁causes
ться
ņ
variable
лл
▁zou
▁worry
hide
▁throws
▁авиа
計
▁educated
▁зав
▁деятель
▁Real
▁honour
ott
tilde
▁M
▁Baker
LAY
sync
step
▁Quint
agli
lio
▁extent
▁anci
▁bank
----------------
▁depois
Volume
▁temporal
▁linea
▁Stone
▁vá
ała
▁Deutsch
▁task
sock
鉄
▁поме
iv
▁
▁Psych
▁Status
<0x23>
]))
mir
te
Native
bio
ento
ars
umably
ienne
head
ka
lias
oltre
ії
Basic
Enable
▁Gor
ências
Column
gew
тт
▁idx
ape
ال
▁Sant
uter
▁Kil
▁hors
▁lance
▁fils
▁Port
▁relig
▁suas
▁Via
▁cím
▁läng
Begin
osto
ラ
тся
▁público
Da
rimonio
▁мини
▁provides
oku
ка
RU
▁member
oon
▁==>
uteur
▁Barry
▁ї
▁ign
▁rapport
utto
四
áb
▁În
junit
egy
desc
onde
istrzost
▁Lam
cle
тель
▁interface
ingen
rating
▁Remove
▁tool
▁był
▁wenn
▁conscious
▁янва
▁Oscar
▁NaN
▁council
▁Foi
▁abstract
ilde
▁Externí
▁${
autorité
ensive
▁mě
osh
western
Set
Acc
ród
▁Observ
лена
▁Raymond
custom
prilis
шти
▁Meg
▁beside
▁exhibition
▁whereas
▁Ener
▁quan
des
izont
ucky
▁Pr
▁veter
▁autour
▁anch
beit
collect
reens
∣
∑
ower
templates
由
вання
▁Kill
älle
▁Mercur
▁пров
并
racht
ád
▁inner
▁Jag
▁Alliance
▁регі
unto
▁seasons
bled
istiques
numbers
▁Cla
lein
ntil
ක
▁Luke
▁proced
▁Rout
▁explicit
▁significant
ieri
▁lij
▁Freder
num
зик
activity
ymnasium
gele
▁editor
▁comments
▁colon
theorem
...]
cible
retch
▁mètres
▁amongst
▁keyword
▁uma
▁sea
▁heures
▁Wayback
schluss
Book
▁fail
nez
▁ub
▁рік
▁акт
enska
mark
Flow
static
▁Mont
ure
issues
▁spole
FI
▁var
system
▁jeho
▁tests
▁англий
<0x92>
se
▁Première
LED
▁па
eso
insert
▁sculpt
▁Argent
▁zat
▁encore
▁faz
▁Federal
▁unlikely
ग
▁elementos
民
Έ
Sql
▁Архив
Label
li
▁fairly
▁mass
rikt
▁Ir
▁angles
▁Lyn
<0x26>
<0x3B>
iae
ção
entication
iones
Δ
ய
▁everything
riers
▁Are
▁філь
▁wię
>
▁vic
жить
▁minister
▁Brun
▁walking
▁qui
Head
äg
▁###
since
ˆ
<0xF6>
▁Fab
▁où
▁lavor
动
▁Turn
logic
你
cile
atted
ition
▁Ball
▁mot
▁более
▁Rob
zna
nah
ія
▁tropical
disk
▁einige
Func
▁voj
dependent
distribution
VERSION
▁gold
▁incl
▁Camp
▁чер
imen
ts
ход
オ
를
▁Appro
▁cors
▁Rund
▁Click
▁Weltkrie
defined
▁то
XXX
▁emb
initialize
▁Days
▁redu
Dest
SHA
▁flowers
▁α
title
ห
▁Cs
UB
лови
▁incre
▁Deze
▁titre
▁Vict
atile
pe
▁грома
▁pione
hrer
ir
TS
++){
ame
arg
▁compatible
ve
▁rép
wiąz
'.
дей
▁Fal
vr
▁voix
▁Add
▁battery
▁pue
▁août
orous
othe
polit
₁
drive
call
▁mari
UC
schließ
Oh
CharField
▁em
▁Однако
▁червня
Ital
ė
▁officiel
alm
Ě
▁Nr
▁tit
▁Text
▁behav
uld
▁leadership
▁są
▁пові
▁meet
▁contro
▁institution
▁serialize
▁Municip
▁thee
▁own
send
lahoma
jak
▁trick
Base
Join
fast
▁Hier
fff
нд
▁Town
ebook
chapter
▁chez
emph
ту
▁Nothing
さ
хі
cija
long
▁pip
phon
sym
occupation
▁nearest
htt
oute
▁eq
▁Castle
▁Otto
▁Ther
▁hogy
▁Welt
,
▁tras
ста
▁figura
Us
▁scientific
ON
▁Genomsnittlig
▁architecture
Done
"])
help
丸
▁può
бов
▁quad
▁Ernst
▁Mad
▁lb
бка
▁Pra
▁AN
rait
ią
ov
▁straight
another
CR
▁contract
▁ay
clud
▁distint
▁proper
▁travail
▁ги
▁Sal
▁ре
кер
adding
stats
▁Liver
▁Cour
▁everybody
▁death
▁tra
其
Background
▁distinguished
▁abs
@"
▁majd
amen
▁Perhaps
emetery
ière
мом
▁retrieved
▁школа
▁dif
▁locked
▁TODO
▁handled
▁Career
▁research
▁presenta
stellen
▁ju
▁Cir
iac
▁début
▁Bom
aw
endo
▁Я
▁interpol
▁E
jav
ා
comb
▁depuis
Sito
anc
▁pointing
ник
'''
configuration
wire
Sidenote
ota
dostęp
▁Hunter
without
▁тор
ه
个
ificación
▁wrote
..
▁prend
omin
▁ER
▁Lucas
mysqli
▁reject
▁Hub
▁комму
model
pring
atin
color
 
isko
reduce
ulative
▁Cav
▁Contact
▁sub
▁зали
▁Right
▁неско
baz
ụ
▁engl
istrict
▁сент
тал
▁dispers
▁új
ศ
▁figured
round
▁tick
▁поя
▁updating
den
▁hate
▁Page
crement
licit
ork
▁boundaries
▁fighting
▁changed
▁jump
▁eb
▁vrij
urre
ム
▁padding
▁kap
▁games
igg
marine
ounded
▁través
▁использова
agar
>`
Percent
▁Este
goal
imit
alled
▁train
▁elaborate
lic
----------
▁Philippe
▁python
▁singer
ASC
▁stre
▁got
üst
u
Ids
▁marry
▁Fix
▁authorities
▁produce
▁Jews
▁gets
▁motion
산
▁placing
ья
▁reproduce
▁kar
▁peque
}\
▁Configuration
ien
▁Hard
▁Jerusalem
▁Konst
Function
atiques
▁Water
▁Socket
▁Dead
▁compart
Pi
▁Те
▁solic
▁redundant
▁atomic
undred
▁vom
▁березня
дами
▁ú
form
▁drew
emeinde
▁Lig
▁Zag
▁Lü
▁pok
  
▁Airlines
▁Prés
▁processed
▁Segunda
Mail
▁tak
ächt
▁Font
▁'''
▁Bank
ücken
料
▁....
Š
▁NFL
ful
hyper
tek
чай
▁Ré
▁proble
зі
=".
▁эти
▁McC
▁Daar
▁Кар
▁curr
▁folgenden
▁cit
cep
▁paths
▁US
▁Old
▁Hern
▁VS
▁tro
选
xsl
▁droit
spe
bach
▁gen
▁Seite
▁mujer
ват
▁ries
▁limits
ich
▁Fl
car
▁ideas
ень
np
▁{'
▁understood
▁confir
▁Problem
▁AM
▁ide
▁Бу
♭
▁MP
-
igo
cken
▁kir
▁Elli
соб
▁pla
▁ф
▁ü
▁Budapest
▁pre
nas
▁Rico
vik
ду
▁Maryland
geh
oni
▁\[
zó
cher
itionally
▁OP
igi
▁області
▁edific
<0xA0>
井
▁Isa
▁Leg
ù
भ
▁Mean
▁finished
▁mud
▁periodic
⟨
rench
▁trying
▁период
њи
▁округу
emb
ุ
▁ps
▁storage
array
▁Break
HttpRequest
▁hatten
▁IP
▁reste
▁július
Operation
<0xB3>
▁%.
Field
▁consecutive
рабо
}",
iast
Mapp
▁posto
▁вос
▁edited
野
USER
ა
▁temperature
tout
скус
ateien
ingly
SC
make
secure
▁Höhe
▁erhielt
▁significantly
Entry
gie
▁Directory
▁equally
▁Premier
cin
Old
ligen
址
▁chosen
▁mist
aggio
substring
▁volont
ancing
▁be
comes
#
り
caption
▁feel
ḫ
▁допо
assembly
▁wir
▁ruolo
▁mere
▁perd
용
▁cer
▁satellite
ignment
ђ
Split
ctl
▁terrain
▁семей
earance
ச
▁cat
▁челов
working
eles
icken
▁predicted
্
▁translate
thes
子
spec
ному
▁blo
>();
▁игра
▁rip
ace
ix
Converter
▁protein
▁hosp
Http
ب
yman
gio
▁Instead
▁Schles
▁JS
▁JOIN
▁broke
▁pos
Atlas
▁google
ului
▁singular
▁suppress
▁mater
▁thou
álva
ым
Martin
val
▁Yam
▁tib
▁nå
თ
omi
▁pyg
jp
;\
б
▁divers
had
▁enem
-%
▁Arg
▁rat
ouvert
▁substr
▁documents
Owner
У
コ
▁Looking
▁subs
▁Ash
bet
▁compilation
▁december
▁Emer
inst
▁Mind
▁tomb
лій
general
рито
▁purchase
ouwen
ld
ytics
▁Internacional
▁tou
▁Foundation
▁sentiment
erd
▁carte
▁sud
▁Day
▁Victor
ixed
UND
▁brow
▁leng
▁pitch
Changes
▁repair
ровой
lassen
▁Output
▁accomplished
才
лект
▁switching
▁войны
дня
ў
▁wa
zym
▁вз
cadem
acent
▁ancora
UP
▁"\
ires
▁silence
▁disse
▁criminal
▁sang
gender
▁Nar
阿
▁Http
łą
▁frü
ondere
▁fac
▁distribution
{-
▁respective
▁voted
▁Natural
▁listed
pag
inct
▁Commons
▁explanation
▁Browser
▁Mess
▁Zu
Mac
க
▁navig
▁foss
▁quar
Items
ilities
öh
▁","
▁APIs
irl
▁kan
□
▁feder
▁revol
▁▁▁▁▁▁▁▁▁▁▁▁▁
ala
pole
psilon
▁family
▁▁▁▁▁▁▁▁▁▁▁▁▁▁
рова
▁laravel
▁Query
▁gewesen
▁compte
▁lig
▁distances
лав
Employee
SV
MI
▁relacion
<0xCD>
▁Comple
▁други
▁northern
▁Testament
ore
enç
▁inspired
▁looking
▁entitled
▁Plant
cli
ambda
▁cosm
reibung
▁abc
gz
▁assigning
ior
cnt
_(
▁befind
hel
▁pity
▁physical
soft
();
▁profile
▁само
州
Response
istema
▁часто
▁domains
izon
mouse
▁:)
▁Video
gaben
▁gradu
▁rejected
ket
pect
記
serie
LayoutParams
known
▁writes
Power
ualmente
ί
▁Dokument
▁areas
▁Mount
циали
arding
theta
▁Ez
▁Due
iced
бя
Fragment
▁Und
▁down
▁chron
▁Ring

▁entstand
▁quartier
▁News
пов
▁Iter
DIS
▁væ
▓
▁Hyp
▁coordinates
That
ʀ
дина
▁canad
clo
Required
uzione
ECT
ʻ
兵
▁ordering
▁lists
uben
events
▁prof
⁠
lice
Anchor
▁Optional
▁passer
▁viss
іль
▁mountain
▁(+
ició
OIN
▁proxim
ningen
▁жовтня
AVA
▁render
bird
▁uso
▁League
▁dynamics
lef
▁appeal
▁Maj
▁СП
бом
▁faire
racle
highlight
▁Shang
jboss
▁convey
▁сайт
ⴰ
ie
▁М
▁sequ
▁Хронологи
▁складі
▁reflection
▁Официаль
▁padre
зд
ohn
ної
▁Re
▁eventually
▁failed
▁Beck
endif
ractor
ucci
да
▁painter
тельство
▁requ
Transport
termin
сь
▁places
▁wegen
▁городе
▁Ulrich
▁Liber
Pool
acters
▁loved
▁január
abeled
▁agent
ibility
▁posible
▁Italy
Original
▁num
жде
endor
gate
reiche
definition
▁Sept
▁dar
▁Все
▁than
▁group
լ
Constraints
aut
aña
▁Level
▁−
▁bout
▁Korean
mock
ното
ationen
▁alcan
▁pleasant
]:
Fri
▁true
茶
root
結
▁og
▁Sy
ör
ním
lach
▁pedig
indent
▁param
images
acions
cards
rások
GE
▁throw
▁Exper
▁WH
▁restaur
▁multiple
abel
▁VAL
▁Warren
)}\
Mouse
ylvan
ств
▁%,
▁Jess
▁Reform
▁Joseph
▁fais
▁declar
実
attle
▁bekannt
▁other
Update
▁captured
NET
▁stern
itchen
▁Node
cí
idge
mapping
dor
ener
▁Berl
▁Rahmen
▁stati
▁hor
▁Ok
guer
essa
arsi
ص
▁gehör
шения
▁street
指
▁Switch
mathfrak
Not
issant
прав
webpack
тай
▁bla
▁exactly
▁mine
▁stud
▁EXISTS
▁becomes
▁związ
чная
rance
▁Governor
▁Russell
ales
▁contributions
日
artifactId
▁punt
ív
▁eing
lying
<0x80>
Param
чень
ipping
▁пове
phi
зом
xty
▁control
▁php
▁Jay
}}_
success
▁route
▁факуль
伊
stream
گ
▁jog
▁waves
▁сле
▁deck
viv
▁administr
)`.
▁тран
▁wit
▁dedicated
(',
േ
undial
▁batch
enium
ác
ша
bine
mus
<0x1C>
▁Zar
▁hydro
▁immer
む
▁gods
then
és
route
;
}$.
▁bel
isz
pred
ździer
▁nor
abhäng
▁Kirchen
▁је
▼
parse
Calendar
\<^
лися
dra
▁cand
DAY
ṭ
▁hombres
++;
▁inoltre
>(
rug
▁Cel
миче
▁top
cially
▁industry
▁fee
(()
HO
судар
▁apr
▁aument
»).
ющим
▁observer
▁raw
회
▁sys
ase
ViewController
▁dich
Match
▁did
▁everywhere
лии
▁division
▁ung
ст
▁igual
enter
▁mano
▁balance
▁pat
ს
vor
tes
▁What
▁belle
omic
undle
▁först
▁hol
reg
▁dynast
Hz
▁FIFA
á
▁werk
spl
▁assistant
▁Ан
▁mid
▁rapide
▁Jesus
▁gab
▁En
products
▁soir
▁Prix
atrice
naire
жда
▁Bé
▁persona
she
ṯ
getText
▁stehen
hy
▁derived
Cert
ogle
rott
▁IOException
▁dere
▁smaller
▁године
▁OF
alls
iane
>\<^
백
firebase
▁server
ῖ
▁commun
▁together
▁dream
nak
oris
▁Those
googleapis
ète
house
ord
▁голов
▁]]
irit
▁lie
▁millimeter
If
▁Maz
▁suiv
ство
▁Xml
▁molti
)=\
▁Schauspieler
Tem
▁Kap
▁ctx
▁Na
audi
eree
anten
▁diplom
▁knowledge
千
▁giv
Miss
eu
oks
▁expose
女
iment
▁ко
▁Enter
▁vérit
ką
anson
q
nen
▁erm
j
už
next
ℓ
▁Mot
aría
staden
ŝ
▁seinem
试
тер
<0x7C>
▁miles
շ
řed
orum
ptember
▁players
▁stone
Э
sn
▒
ASE
「
isie
▁Ext
rem
▁Academy
ological
▁Gli
▁Ort
▁Chron
▁économ
▁apps
▁висо
Theme
ruits
stackexchange
▁events
▁Гри
▁most
shared
▁Zobacz
▁bajo
選
▁mole
жён
어
ailable
ront
Upload
dt
Canvas
求
▁Vil
tta
asket
Ť
▁Layout
▁hath
▁network
▁Championship
▁unexpected
▁dok
▁possib
▁Januar
▁longest
▁mentre
spre
copy
▁alongside
▁DECLARE
▁sty
▁evening
▁bij
Rightarrow
<0x18>
inois
preview
raw
space
▁Lor
▁remark
▁Sau
▁она
pos
ichter
èces
Κ
uese
inline
ин
∨
▁teeth
▁Med
▁уров
ultan
▁authentication
option
jection
▁Los
▁let
Valid
login
▁mic
▁ner
▁pens
),(
▁Times
▁dél
▁fifty
ные
▁geomet
▁initially
estion
▁grant
▁iterator
▁retr
ний
arring
rios
ria
▁timestamp
Layer
▁Steph
▁fin
Ro
▁Perú
▁pictures
▁y
▁совер
;&
ències
▁routes
▁intended
ód
▁converts
ABASE
▁legs
▁milit
Normal
columns
ands
▁Creating
▁cidade
template
По
btn
▁Ma
iras
▁Santi
▁arrived
▁Period
slug
Did
attan
email
plorer
▁Space
▁continued
тво
ämp
奇
charg
▁misma
▁classes
▁court
kon
▁override
▁articles
conne
▁sequence
ctions
▁!
吉
▁этот
▁län
wood
▁back
igny
itar
zes
inned
asta
▁располо
▁Musik
hora
态
chrome
re
0
bar
üng
▁polic
.$
odu
▁shed
NG
ades
alog
▁mű
▁ple
inar
▁Grace
yy
▁marque
Servlet
▁ActiveRecord
▁Oper
▁[]
▁appreciate
}))
▁simulate
enson
▁Ј
▁capture
▁Tib
esc
ictures
▁medium
▁pendant
Every
╚
iek
Many
▁desp
.@
berto
imming
▁Regional
module
Imp
▁Japon
▁Imp
▁dre
`,
heiten
irect
its
▁Encyc
elian
syn
▁magazine
▁OS
▁Йо
▁varios
мин
▁record
▁Fra
▁Militär
▁surve
}}$,
▁után
oci
▁peace
transition
▁Resource
ASH
gem
▁sheets
▁Н
▁intention
let
▁zweite
▁receive
mbH
Dec
▁грудня
markt
kunft
Java
Mem
}")
▁Fou
▁summar
Outlet
break
岩
▁Gü
▁spons
▁rise
▁latest
▁HTTP
▁Teams
▁cult
▁ion
▁Venezuela
▁extends
ęż
▁Gon
▁differences
▁Initial
calc
emen
▁reaches
▁wish
▁Spart
村
▁Cache
▁loro
éo
oj
Notification
ède
clusion
▁champions
▁father
▁git
▁Sarah
▁assumed
▁induct
▁també
▁sul
MON
large
▁Okay
Generated
▁Pas
度
annel
▁indu
▁områ
▁pubblic
]/
mask
sets
≈
介
▁tiem
ந
⊕
▁Bahnhof
්
▁Gren
▁artifact
▁configuration
竹
oused
ář
▁havia
ups
Period
▁award
▁бли
tv
▁shooting
Н
▁W
rup
▁'"
▁rag
比
izada
Spe
▁Bildern
▁Pitt
ôme
aland
публи
▁THE
▁fresh
▁Rab
Renderer
athed
onne
idents
ishing
社
▁noble
▁Бо
ine
éré
IC
kih
ivamente
▁Ass
▁hibernate
▁tutorial
вет
▁Imperial
▁Gros
ས
uvud
▁convin
ou
rost
icios
xim
ツ
ẓ
▁Pfl
▁manufact
ets
)}(
ṛ
▁Sans
터
▁Save
ʑ
ħ
LES
rotate
▁life
▁mul
▁Моск
▁тур
ONG
etta
Vert
eres
▁Andre
atique
▁defense
See
Cannot
▁Cruz
▁tec
eler
▁invisible
>";
bootstrap
▁Jakob
▁ließ
▁precision
怪
▁sog
▁Notable
ordin
stvo
▁Richard
▁climate
ätz
<0x2B>
utes
ō
▁Dic
▁clo
▁sze
alus
ocy
JavaScript
ţ
▁Mid
▁Glo
ifier
~$
Π
зах
典
▁kurz
戸
slash
▁Bü
▁units
resp
▁asset
▁kid
bolds
▁Legisl
▁destin
ía
▁ale
eq
alement
schema
▁ве
Auto
▁Il
▁ты
August
▁automatic
tuple
Float
▁Амери
éroï
castle
▁ж
▁allowing
bits
sections
autor
rop
▁строи
center
cart
▁Later
▁cin
▁трав
見
dog
▁tweede
<0xE9>
ENT
ęp
▁archiválva
▁happ
▁geometry
f
▁vern
▁however
▁пос
▁considerable
▁matched
uzz
▁pent
andis
▁Stern
oten
цю
some
ссии
ـ
▁última
▁acting
▁армии
usion
ált
▁Zeitschrift
prit
Line
⊂
▁dialog
<0xD1>
▁plays
ění
▁auc
▁Ü
pha
▁juni
▁took
inity
aker
mem
navigation
▁session
▁Nom
▁Архивная
Map
▁Ier
て
COM
ić
ými
ney
υ
Inst
ess
▁einem
▁useful
─
▁except
elen
▁choose
▁contrib
▁Основ
chod
▁campus
дия
▁Seattle
NL
▁valuable
▁ped
umed
▁Price
▁sain
ции
▁scri
cv
rument
ové
▁Conference
bed
!\
Oper
▁Nev
iert
▁fe
glob
ի
▁starting
▁Charlot
club
▁guerra
igen
oc
imately
riter
mee
▁gmina
ALL
▁moż
▁safe
▁Coppa
▁yes
▁);
▁Although
▁Term
▁crossing
AE
▁router
uw
'`
▁viene
ási
▁Rome
该
algorithm
На
▁Project
▁capit
▁expect
esis
▁include
▁few
▁Round
ར
교
ulf
▁jud
▁spécial
geführt
▁Lawrence
imientos
Wil
}=
▁hat
дів
oo
▁CP
sku
endum
oney
▁Lehr
▁reflected
存
▁IU
░
про
▁describes
▁identical
▁ob
▁dei
▁sizes
▁отрима
▁Мор
atri
비
ussen
▁rolling
▁опреде
<=
uetooth
▁funds
gn
bucket
▁depos
服
▁AP
▁prov
▁Member
▁Rect
▁Stand
▁Else
oline
▁ggplot
▁months
endra
ular
vole
▁Ши
来
inary
▁Norway
▁Reich
ram
▁Ger
▁wel
urrence
▁disco
▁<!--
:@"
▁Kh
▁reduces
ison
city
äft
▁included
ホ
def
дного
▁Kauf
▁Phone
▁road
▁wiel
ggi
ClassLoader
Image
inek
▁ready
Ż
▁rm
▁void
▁Palmar
error
Does
render
esti
⁻
Util
<0x9C>
owej
bres
iter
çon
▁transformations
ags
ță
it
▁next
▁dess
<0x5D>
▁україн
▁дет
yyyy
ح
Vertical
multi
▁při
▁в
]),
fonts
▁rail
▁sta
▁Spiel
byte
Pair
▁[-
Upper
▁astronom
rok
ош
▁venne
iwers
uola
itung
threads
community
ried
wick
▁Präsident
▁Places
ס
▁cores
uo
▁ind
��
++)
▁partici
)
->_
uen
▁Tax
server
▁Gabriel
▁gründ
music
jub
office
▁contradict
▁lequel
▁meaning
ส
な
▁heart
bra
▁Bull
selector
▁prz
hibernate
▁Bon
▁equ
states
▁orthogonal
선
▁instances
▁rap
enser
tis
}>
▁kommun
▁protection
▁scale
▁depends
eurs
▁reconst
term
Mer
▁Classic
▁sweet
▁Era
±
▁Vater
▁experimental
▁назна
▁po
ifies
where
▁pic
side
མ
▁ears
owana
▁django
▁Кон
RT
Visibility
äll
▁and
▁GR
▁Tag
Services
вает
▁Pays
▁sed
ikor
index
cursor
ois
^{-
logo
hard
larg
ľ
пі
▁charset
▁exclusive
▁fat
▁repla
▁télévis
▁vill
ład
▁Depending
▁exceed
▁Sitz
movie
сторія
拉
aget
windows
▁corte
Webachiv
mq
▁Pub
take
iding
車
onal
onic
któber
แ
ো
▁troisième
await
▁Theorem
▁storing
▁lorsque
城
ulp
Animation
ovis
bose
▁Schweizer
<0x15>
standing
▁Durch
▁Ana
ття
h
▁ма
andom
▁пси
https
▁gewählt
ά
▁quatre
ks
▁À
наль
▁partie
▁happening
lar
world
▁общи
ened
▁Irish
▁unit
▁Нау
парта
⅓
▁кан
▁Organ
vertical
▁Loc
ails
▁oldest
ARY
▁overcome
默
青
rite
▁drives
▁gg
clar
pu
▁briefly
ト
isEmpty
orage
▁tant
context
▁troops
))))
▁tutto
▁parti
Ser
▁offering
iser
seq
de
ğ
▁Ново
▁Mys
▁Deutschland
--+
▁tém
▁militar
▁scored
poly
ём
▁jel
occer
▁noreferrer
▁rum
LM
fi
guide
lag
▁brief
▁folk
▁kon
uche
▁timezone
tbody
▁Series
´
连
нії
Jul
<0x83>
OST
▁germ
▁während
▁ме
vee
▁Pel
ază
bis
▁neur
alu
щая
▁Bo
ým
왕
▁collect
▁présent
");
▁teat
ит
Ke
▁Constitution
▁fluid
▁wonderful
▁GND
Direct
rip
дра
▁bedeut
цией
braio
essions
...)
pel
▁entering
▁Survey
▁Solution
▁revealed
▁attachment
▁waited
▁onClick
▁####
<0x38>
▁prendre
Focus
▁sel
ect
prof
ńst
▁ciel
▁ranking
temp
ー
▁vere
ulator
³
▁`.
▁pray
ی
;</
hadoop
▁Haut
▁Ру
▁впер
Actions
▁adm
▁reach
illi
nd
▁Насеље
▁Very
sey
▁look
▁Camb
▁ils
▁otras
▁thousands
username
▁against
ecz
eerd
த
▁Jr
▁{}
▁squad
▁inhabitants
▁pro
▁Резултати
▁speaker
▁Chair
▁We
ơ
iver
▁Warsza
▁arab
locked
viation
empl
gy
▁available
)->
aties
jpeg
urent
▁aktiv
▁fed
uchar
▁whatever
小
Ко
▁gdzie
▁decision
Pat
osp
▁wand
错
▁lord
▁▁▁▁▁▁▁▁▁▁
▁struck
▁linked
▁%).
▁comp
▁comport
чен
ὲ
▁succ
▁Love
▁familjen
separ
▁meg
▁även
▁Nak
ruption
▁gemäß
▁действи
late
▁Anleitung
▁Soviet
icles
▁PL
▁Федерации
racy
▁Carolina
▁Einzeln
кой
arn
▁Lord
closure
▁Sing
っ
ionic
▁eas
France
lö
ർ
▁február
▁территории
利
▁übernahm
bag
▁вой
▁Alter
<0x1A>
ś
Attribute
bour
▁différentes
▁exemple
ARCHAR
=[
Picker
esen
ʐ
▁світ
disambiguation
▁Fall
fern
▁palace
веде
▁performing
▁badly
week
ώ
прия
▁False
▁боль
▁recogn
▁chair
wall
psum
▁Rugby
U
▁bomb
▁sharp
▁Kit
▁nut
▁multiply
diction
CO
IME
nice
utt
▁Hyper
▁Julius
▁af
▁employee
▁consec
▁higher
▁interess
ern
▁mini
▁nad
An
▁innov
andbox
▁дере
ñas
ходя
"></
REQUEST
▁NS
▁capabilities
ک
▁Arc
▁swe
sche
▁devant
SUB
▁í
▁stranger
断
ecause
Insert
Credentials
▁réalis
▁Mes
ività
umps
Async
▁ordin
tip
▁reb
▁White
ding
trightarrow
Each
compare
cov
во
▁doc
clock
ç
ciones
▁beskre
unction
▁világ
conda
config
设
мар
itas
*{
=\{
óp
ansion
ț
▁-
mvc
▁trust
▁controls
▁Jonathan
▁satisf
▁clue
Html
▁HE
▁mise
▁empres
▁contempor
▁выпол
▁dismiss
▁Request
rvm
▁дол
▁variety
传
onymes
▁chi
▁dire
▁musique
▁Резу
▁wetenschapp
scop
▁stabil
ária
▁hatte
▁Logger
green
▁Por
据
lle
▁factory
▁аль
rá
▁czerwca
{'
ita
▁clock
▁satisfied
ubuntu
▁taught
▁cot
▁While
里
etes
owany
▁Veg
hl
▁covers
▁organisation
▁intend
viron
▁ArrayList
▁datab
Act
heimer
umbnail
westen
鳥
甲
йн
ографи
сия
manifest
Frame
sum
▁tres
elf
iju
ні
Ž
bit
劉
OM
legen
iting
agnet
▁Titel
▁explain
fields
»,
▁\({\
Null
▁dominant
▁kinds
ceae
▁від
▁filters
▁района
ícul
аль
plays
ian
▁Eu
installed
▁Temp
тку
▁anybody
ptop
▁political
▁skup
▁Close
▁edge
ak
▁коло
ops
isions
white
тро
▁mixing
cul
giv
▁прово
▁{%
burg
()`](
ization
▁Holland
▁eyes
istik
▁Thanks
()
band
▁smart
ก
▁throwing
ana
▁▁▁▁▁▁▁▁▁▁▁▁▁▁▁▁
ydro
▁excell
={
▁Bab
▁Intern
maste
▁sch
▁intel
▁Spieler
▁dues
▁Ін
atuur
eil
▁Go
former
ók
psi
▁'#
▁area
▁liste
нала
osas
drag
=(
▁să
▁que
▁familiar
▁journ
};
▁sampling
names
▁дерев
ук
ἔ
מ
▁Im
Come
has
▁exact
ských
vir
Matrix
▁stamp
▁gran
▁terror
agement
TI
▁z
loyment
udad
▁место
▁"",
▁churches
yll
▁пока
lement
▁Tell
▁processing
sers
ców
▁duties
▁independent
header
▁bat
HP
▁cab
colon
▁ha
▁christ
mina
▁кня
chart
innen
▁Hat
ologies
▁Mine
▁symbol
syntax
▁XVII
{[
▁spé
coming
тах
▁Hed
дии
▁дости
▁Virtual
▁crew
▁permission
бле
)+
▁'';
Lou
ías
lections
beta
▁Rud
▁política
orno
▁Matt
Summary
okrat
adt
▁shore
명
▁monitor
▁scratch
▁года
▁domestic
acional
{$\
▁étant
rices
ʊ
▁names
▁bes
▁ser
▁tbl
▁PS
чения
李
eqref
Ph
स
▁///
▁uniformly
系
esse
▁Pot
icon
▁Pho
Produ
▁Either
▁släktet
>'
Assert
▁defence
▁zewnętrz
Nothing
▁öff
▁inclusion
▁o
ch
▁Mil
▁commut
digit
'_
▁flow
ixon
▁establishment
▁jour
ът
▁situé
▁Profil
buntu
▁octobre
▁Ben
▁центр
▁clust
▁criticism
▁ment
▁aurait
>';
▁coordinate
▁memory
▁Bapt
▁crow
▁gard
сно
▁Girls
▁(-
▁prevent
».
Jack
SON
ąz
fb
▁rating
db
▁fo
цем
▁ké
▁stdout
▁Refer
▁fö
▁offered
ré
tomcat
yst
лад
▁Fund
▁IF
ired
▁Prior
▁edges
ären
▁historical
enz
▁sov
▁effort
▁unders
AXI
Ü
ό
▁plain
▁має
▁Ari
nor
▁Circ
▁ен
▁ра
▁BC
<0x6E>
illy
зма
▁permut
せ
▁(?
▁nivel
▁нап
anes
▁Look
тирова
▁Phili
▁downloading
▁Rou
▁regnig
ball
▁város
▁coff
▁score
schnitt
▁convenient
esseur
▁Acc
▁стату
▁informed
raz
▁event
▁particle
ὀ
▁may
▁testing
лів
소
▁chim
些
寺
▁selection
Refresh
кин
▁stages
▁representations
famil
▁femme
dział
enso
iedenis
undert
▁Bern
▁Kom
▁Urban
▁darkness
▁fingers
▁prohib
▁línea
ι
▁rectangle
▁муніципалі
Fre
橋
▁ej
▁subset
yond
▁fitting
ு
▁equip
}.
关
solute
▁uniqu
▁импе
▁technique
uel
encoding
▁tin
▁&&
▁était
äufig
DEX
▁manera
ku
Driver
▁Capt
▁students
性
▁accuracy
▁points
▁"_
∀
▁Cat
▁Document
Only
▁pra
▁belonging
три
▁contest
▁Buffered
▁drie
prime
▁ersten
▁repository
Btn
§
▁insp
▁inspect
▁и
ди
cap
aler
▁Ch
▁coup
▁typical
▁Kontrola
件
▁Life
▁Vietnam
▁perché
▁pt
uario
▁Compet
▁cad
ій
versions
▁minds
ポ
стор
▁Tim
▁moments
▁Transport
erva
jih
bitr
ounced
веро
给
PN
没
pués
ilian
▁Partei
▁febbraio
▁guerre
▁furono
Mapper
ல
iy
▁Tat
VF
▁mod
录
яв
venir
Est
▁Sci
ம
BER
▁stessa
ória
▁named
emble
▁inside
ő
OP
deep
▁chief
alette
▁occurred
▁сви
▁sort
CREATE
migr
▁proprio
پ
пня
▁blan
itz
berts
ucht
super
▁Bog
▁semantic
▁defe
fade
exports
ë
▁ME
▁Death
▁ott
entes
▁фрон
▁cos
ether
界
조
vä
▁zones
Ка
▁paint
▁Außer
▁éx
imar
▁neighborhood
▁BO
egen
개
ω
Action
icina
ources
▁Tree
utch
別
▁guide
inho
ourg
intendo
▁ré
ryty
мости
ociación
▁Begriff
ühle
ind
▁CURLOPT
▁asc
rim
▁remainder
ensor
▁instead
ieval
lua
sam
▁werd
letin
▁Integr
URL
jà
▁så
▁sin
wd
▁construction
elles
▁William
▁night
▁orientation
projects
ument
trat
͡
REF
weet
▁flu
opt
▁explos
ests
kele
льно
ély
▁kol
▁pert
▁activities
▁enters
▁propre
▁cho
▁(!
lip
▁feb
▁outputs
성
▁Unternehmen
▁ehem
ダ
▁perm
▁Password
▁side
▁UK
▁edit
▁elabor
▁sold
▁созда
tered
▁Düsseld
зяй
iewer
ingers
inth
igs
त
▁GC
▁Napole
▁ана
▁status
fig
▁Belg
ifié
говор
▁lanç
qual
grep
▁questa
bió
лся
}]
▁defines
▁"%
ти
▁lag
iego
▁поддер
oken
▁skal
▁ipsum
▁Mam
▁Prem
arante
ным
▁journalist
ª
Selector
dat
folge
gmail
▁dispar
▁ves
ils
гда
▁agree
▁Computer
pic
setState
uellement
Effect
▁о
▁Hel
▁injured
▁tête
isk
ogne
aud
ёт
▁Sver
Metadata
▁comercial
▁фамилией
ersch
▁Bij
▁Gast
▁Press
Hor
▁resources
니
OR
ською
ум
▁друго
▁abandoned
▁міста
▁In
phal
DF
▁Eug
▁с
▁stood
▁ugly
▁toujours
tera
edad
vc
▁bei
êts
▁monument
▁Bridge
F
}^{(
▁audi
▁Бі
phere
ässt
dent
▁приз
▁других
ális
▁Array
▁ic
▁nog
▁rund
ening
,\
▁člán
actory
isce
▁picture
Ignore
qt
ḳ
ël
Let
ovi
ябре
▁ji
▁weights
hello
.=
</
ownik
▁Abstract
▁Maria
▁Александ
Lock
▁windows
dzie
')[
format
▁weitere
▁Force
▁dev
<0x4F>
customer
®
loop
}}{
▁features
▁før
▁fs
▁verschiedenen
ichen
oki
NUMBER
▁Sta
▁relatively
英
▁Scanner
▁marker
abb
ológ
férence
ocz
▁*)
▁Vol
▁governo
Che
▁mode
ardon
<0x62>
ables
ircraft
sent
▁materials
igt
▁catch
▁approximate
▁featured
ga
default
oa
files
▁professor
▁preserve
Архівовано
▁Anders
▁hum
Black
▁rotate
▁defin
icha
лка
kins
хи
▁diagn
▁settlement
▁previously
flug
qu
▁konst
▁Render
Λ
ु
▁società
uuid
ulating
▁према
зин
_{-
▁Know
▁titled
▁step
One
fore
фіцій
桥
▁marca
▁dry
!"
▁uniform
▁genom
▁Minor
scar
iellement
buff
▁solid
▁arrang
vision
▁hole
▁appel
{|
ד
▁assignment
hab
omorphism
}-
orten
édération
▁geldig
Socket
кло
▁enabled
▁innoc
▁jun
лю
▁дви
esent
Je
ор
▁nest
ymn
Sm
<0x93>
ety
schein
sprach
▁functional
cki
rike
usta
пад
ность
OutputStream
Fiddle
▁вы
atures
oteca
▁OR
▁nécess
▁opinions
ppi
▁Aw
⊤
▁Fut
▁schließlich
▁execution
scroll
ccess
▁ns
/_
édia
▁Db
▁Кра
▁Woman
▁Martin
▁Res
чил
ị
atalog
▁CSV
quired
▁prince
▁topology
部
木
ację
}}_{
▁Button
▁books
▁пя
▁Хар
▁us
}{(
▁instru
itte
▁statistical
▁Copy
▁indicates
▁Roger
ometry
так
rose
▁convent
Æ
▁Д
▁new
▁demo
▁музы
ifen
事
@{
liche
ная
?(
Ś
▁monot
Coll
_\
ència
itié
Content
player
ruct
ش
__
▁gauche
▁neg
▁très
uid
▁Match
court
▁arm
pf
homme
▁confusing
▁Retrie
▁października
白
.(
▁coord
rich
ßen
ædia
高
odox
▁dé
▁Kel
close
quick
ienia
▁ні
▁Head
ikel
opus
orth
索
sudo
▁spel
▁versione
ahoo
ruguay
▁espa
Fun
▁seek
▁zoals
tele
wend
serve
▁apenas
istence
stru
▁transl
▁ус
ast
ble
lopedia
▁spend
oning
▁stretch
onel
▁Świ
eless
lij
ī
voice
▁Sl
aci
▁–
▁categ
ً
▁Meyer
▁spoke
▁край
ὁ
SF
Person
HR
Ty
▁Has
▁ging
ního
▁minus
▁wrapped
自
▁checked
нар
Day
aupt
▁avoided
▁episodes
▁же
▁hans
▁svg
▁memor
▁finale
cers
▁vision
▁department
auc
iko
▁Pol
▁whilst
Vector
▁René
▁language
ink
▁sensible
options
▁Fight
▁deix
");
▁suff
<0x50>
dump
ственный
▁corr
ָ
▁atmosphere
▁upload
iers
▁labour
▁là
▁observed
▁donner
<0x2A>
▁dátum
`}
rages
▁може
that
mul
orientation
▁Exit
▁Бра
maz
▁gebru
▁Wind
<0xD2>
atom
∥
▁remarkable
▁tableView
▁Orange
ren
·
stein
idenote
▁Representatives
Receive
ber
ision
lookup
env
▁surname
▁Ehr
finite
▁underlying
▁Rom
uerte
▁tk
cong
▁би
▁bev
▁subscription
▁reports
imedia
▁Schweiz
cu
▁plugin
Bas
leted
leased
▁(`
2
utsch
iew
▁Dioc
▁selected
▁inwon
____
▁Jew
▁within
Framework
▁quel
▁MR
stal
永
▁Flag
▁asse
▁guys
▁lift
▁fav
▁loud
▁рів
Cancel
end
ivid
▁Philadel
▁node
▁quarter
▁ERROR
ibe
▁femin
▁jú
apter
▁Biographie
lant
lub
Β
▁easy
▁flower
zn
▁YouTube
̩
CD
▁національ
▁begins
▁General
▁sq
éon
▁vocals
▁Anne
▁Мекси
▁lawyer
зен
ʒ
津
!("
akter
inkel
orsz
▁telt
abad
ifie
concurrent
svg
▁Anton
▁Moon
)}{
▁still
▁fork
拳
сок
▁increases
\}$,
▁mí
Drop
▁castle
een
▁undert
▁voltage
Syntax
▁Lé
▁severe
▁Боль
▁зда
▁coast
▁dr
▁again
compile
▁_
▁ри
iciones
frique
▁jego
▁TextView
▁Houston
insen
allery
▁Ka
▁wrong
Batch
últ
▁fear
▁thing
▁FM
ǫ
】
▁permet
▁miembros
▁operators
▁Coun
▁мат
▁Trop
ynchronous
"
▁Fif
âr
MainActivity
ufe
бре
機
و
▁distant
▁Return
▁allocate
▁symmetric
^{(
▁stayed
▁Mut
<0xC0>
лтати
▁Mé
▁compañ
∇
ashington
▁powershell
Az
wan
▁OCLC
▁tract
▁Bit
avait
▁Mate
бря
▁Management
chsel
▁endeav
▁obt
▁orden
▁которой
nonumber
▁Sometimes
emberg
icans
▁U
▁seit
▁Od
egn
una
дже
▁();
readsheet
▁lieu
▁presents
▁approved
▁mieszkań
▁substitution
▁Android
air
▁liter
Ap
▁Lat
▁speed
()"
▁Such
Variable
▁jako
ativos
▁farm
▁GmbH
▁Need
▁особи
▁тео
▁edición
ський
▁addressed
dn

$$
park
▁deal
▁kin
▁свою
▁bound
▁comune
usr
▁Mou
▁conflic
▁mos
contra
▁på
pse
▁mediante
▁Fußball
▁lar
▁dans
▁etwas
▁Herm
▁cô
▁Hij
▁externes
▁Poly
▁rain
ERR
▁Martínez
ettbe
adores
/),
▁Ela
▁played
▁pap
akes
▁key
▁spielte
usage
▁tale
▁Release
After
icio
cio
▁police
▁tid
▁ví
vs
▁ві
rule
▁studies
▁Kais
▁'/
loy
кар
▁genu
▁Te
registr
ommes
Parser
hat
▁Norwegian
vari
HOST
▁AJAX
▁iterate
Char
)")
▁ingles
conv
▁iron
туре
▁einges
student
amento
▁IMDb
▁university
▁packet
pot
erno
<0x13>
ids
▁Sach
asc
Foreign
▁DOM
proof
вый
▁designer
▁Struct
▁Sultan
Light
Pay
▁Neue
Protocol
▁vale
)--
dawn
▁hvor
▁met
As
ক
▁Москва
SELECT
ory
ş
▁brother
steps
Ц
Good
Per
comment
onnen
typ
ely
▁playing
▁magnet
▁inglés
▁poss
loads
rate
▁Véase
ric
▁drag
▁Switzerland
▁imported
▁typically
▁yeah
▁reck
notin
ogo
▁Haus
▁Cic
ск
▁None
▁correspond
som
▁Platz
atto
▁string
ries
ene
reich
▁esper
thur
▁stage
▁Rock
`](
esto
onto
▁document
▁whole
actual
▁forward
▁Writing
▁makes
▁emit
▁nginx
tei
▁Nicol
▁Could
En
<0xF8>
ount
ép
▁Regiment
▁Buffer
▁Weiter
▁augment
слав
▁possessed
ugno
▁отде
▁***
▁Schw
▁global
▁ingen
▁político
▁scrit
▁обще
▁try
process
▁caracter
▁Basic
▁blah
Timeout
▁NR
▁grandes
▁versión
▁право
▁./
lichen
odi
▁inherit
Url
.",
▁japon
vis
▁sess
▁ts
按
▁ko
zeichnet
▁scarcely
nake
members
▁bila
ground
anks
▁aged
▁final
▁denotes
▁scope
▁sole
pre
▁facilities
▁]
▁kom
▁Leonard
▁UEFA
▁describe
setopt
instance
▁falls
▁да
ashed
▁services
▁diffus
▁Officer
▁Ori
▁актив
▁bör
▁Rodríguez
▁Lied
gleich
▁Not
▁cuando
duino
ched
▁Tar
Generic
ittest
utenant
TextField
▁»,
▁TV
annten
▁suoi
ској
พ
änner
твер
▁atte
七
▁who
дії
▁февра
▁Harvard
▁xx
▁zb
▁Women
▁casi
▁mehrere
▁wrześ
者
Axis
▁level
▁Job
▁triangle
paragraph
Cy
▁Help
ê
кт
▁erano
▁l
!)
▁jazz
Account
▁grave
ctu
]"
▁Przyp
▁Cos
nett
total
▁auto
ток
чо
▁Trib
▁racing
▁internal
őd
Ma
▁première
▁Landkreis
vie
▁extending
▁maar
лон
▁Quick
▁campion
▁dabei
▁fashion
▁TO
proc
▁promoted
%%%%
rv
nof
▁MB
政
▁дека
▁time
오
rinningsområ
Mat
▁prominent
・
▁nelle
omsnitt
assador
キ
▁During
rugu
▁худож
dialog
▁decrease
▁Explorer
plates
▁disappeared
ext
}}{\
▁doors
▁Archives
▁daß
UST
serv
▁loose
▁Pur
nem
▁uit
morrow
Current
▁while
▁apple
▁Sp
им
▁André
EE
kt
github
Formatter
▁Silver
)]
▁Phot
▁bearing
Container
▁subclass
▁Suisse
alth
createElement
▁scoring
▁Wikipédia
ropy
▁donne
Integr
£
esh
rick
▁realiz
▁Sto
iam
▁grasp
ranch
jär
▁Ing
\}$
ța
▁numer
▁Pom
x
▁Sam
▁asp
▁breath
час
▁fi
angu
ViewById
黄
▁outside
prototype
eground
low
ress
▁{@
▁exists
▁lap
▁programs
<0x66>
дян
▁Нов
tac
▁sur
Order
ribu
ael
ifice
▁growth
▁wins
wohl
▁scheme
ự
asis
▁Custom
▁(\
▁hay
▁local
▁disput
▁Википеди
▁пло
št
▁rein
▁patri
était
▁dessen
▁Lexikon
▁technical
im
ânt
▁Maybe
ately
data
verk
κ
▁Without
ALSE
▁"(
▁antes
（
<0x41>
ctors
ított
▁SSL
▁Sel
unic
▁buildings
▁referenced
▁Cy
ynchron
ños
▁Pri
▁These
Seq
▁Zeitung
▁proofs
▁всего
rict
▁Jegyzetek
▁herm
lijk
IM
сси
▁donde
▁listing
unque
▁deli
▁Image
▁desktop
▁John
▁different
Read
▁então
▁planning
ті
<0xDE>
Sa
msg
▁Bootstrap
▁onde
▁Mang
▁Wy
True
nie
──
▁Nueva
▁partiellement
rell
▁Dun
кого
▁Size
Bar
▁však
АН
SL
alert
{}
aren
▁scar
▁wyn
ätte
▁Kansas
▁elim
agt
ption
ز
azu
'];
anguages
▁Cap
cd
▁[...]
▁Francesco
▁ursprüng
encoded
numpy
<0x0B>
arab
▁Avenue
ím
Listener
cri
igned
subst
вать
amiento
▁causa
▁Thor
▁Being
║
Anim
дом
itch
▁dice
球
iform
ט
▁To
▁sudo
▁supposed
rec
▁vice
harm
▁Geschäft
▁tran
DEFAULT
▁fragment
▁nan
apt
keys
ai
Med
ww
▁hombre
▁processes
▁ster
▁род
reas
▁specific
▁Genomsnitt
утбо
▁weird
▁visibility
LT
▁liberal
▁toler
▁resolved
alo
▁доку
▁repub
▁room
("\
ction
▁Position
▁Car
▁conquist
▁Character
Ρ
теля
ieur
ducation
mut
leading
▁recursion
▁tub
<0x97>
▁arg
▁contrary
▁Conserv
▁czł
▁ш
ator
square
omy
▁Dan
gerufen
▁kyr
boy
chy
▁NK
▁гре
olf
じ
▁distinguish
нию
▁give
ipage
itats
PK
aller
dated
▁horn
body
▁islands
reno
▁aussi
<0xE2>
▁cual
addClass
//
сі
▁pi
▁soul
▁merge
ită
▁Marian
▁view
plements
▁Éditions
DT
HERE
rieben
▁delivery
osed
▁continent
íd
▁giugno
сы
▁Clara
▁Harry
alet
▁programming
laps
▁season
▁Ль
asketball
▁hög
チ
atori
sero
▁chance
▁procedures
Ident
fac
▁Key
encing
▁append
orp
SN
▁cookie
▁zunächst
▁instanceof
Del
▁Free
▁remain
otos
▁Вы
▁Slov
ativas
▁Aud
▁буду
▁furn
▁dol
utter
▁Indiana
▁aantal
▁Toul
▁tarde
▁Sainte
▁Moscow
tion
▁etapa
▁tw
▁influenced
<0xFC>
▁fellow
UTC
Peter
Re
ienza
▁ranks
▁male
▁другие
地
▁Bart
delay
ności
▁ladies
▁livre
▁Catalog
<0x28>
▁Anti
Span
▁Trump
▁neat
зна
icile
tasks
▁Marg
▁micro
▁compression
эй
▁Enc
▁января
羅
endes
read
▁condition
▁converter
Named
lem
Memento
▁aos
cir
With
management
ogs
î
▁pix
▁Walter
mal
дви
▁reduce
▁Bür
й
▁trans
▁Wu
▁App
med
▁una
asi
司
▁terminated
kh
▁island
▁uz
智
▁adjust
▁Ark
▁attention
▁angry
ibli
afé
doc
}[
▁alter
▁anyone
▁core
▁Discogs
▁способ
ное
▁hasta
rr
▁guarantee
@@
▁normal
UI
isan
▁nahe
▁perturb
▁Дми
änd
▁Bahn
ense
ateurs
▁coffee
▁presentation
стей
▁erhalten
ista
férences
▁arose
▁ce
liqu
▁Norden
cx
▁ву
UTF
▁Super
cademy
CRE
zm
▁Container
vo
род
iled
▁Sig
▁лі
orch
inen
▁ejec
dependencies
Horizontal
)}{\
тора
▁Sn
▁filosof
▁двух
unker
▁significa
▁Play
▁fragments
▁heutigen
äu
amd
▁Environment
▁mitt
ві
▁anal
Put
▁SD
aska
▁Dig
▁Miguel
rifice
ii
нием
rolling
▁нај
▁FOR
▁census
▁Пор
▁Specifically
▁might
▁conception
Plugin
▁H
ową
▁Aer
▁enc
reven
▁tang
▁doesn
ptic
Double
▁GitHub
ennessee
maxim
▁Th
()`
▁$|
▁cable
▁Comité
сен
▁libraries
▁publishing
▁começ
Pub
▁talk
тами
▁applies
▁bag
▁információ
▁COL
щен
`.
▁belief
▁коро
urz
▁JavaScript
тан
getMessage
▁Pil
▁Wür
▁ufficiale
▁fé
ńskiej
▁Abgerufen
▁x
▁bl
stra
}\\
unity
UILD
ต
▁Off
▁Су
▁воз
fon
友
eld
MenuItem
▁centuries
▁Av
▁ask
▁Comput
▁mu
返
capt
▁digit
ogene
▁rand
▁João
Il
南
▁campagne
ず
match
chunk
éc
▁folders
histoire
▁Pent
"+
/#
▁accepts
▁complex
▁Blues
▁landscape
▁finden
ey
ғ
▁hardware
каз
gent
шки
)!
lane
ỳ
usa
reu
Car
▁rolled
▁ez
▁predictions
▁Over
ково
uvo
DateFormat
istan
orie
▁Columb
▁activity
▁Egy
geo
▁environ
▁largest
add
imiter
зви
▁BTW
へ
ritten
tu
▁Michel
▁dropdown
ḍ
▁упо
▁iss
▁journey
▁Per
▁dés
▁furent
▁bridge
▁Ber
▁war
▁distrito
▁forth
▁sujet
▁gra
आ
▁ah
▁geslacht
ar
▁Records
▁Jug
▁`__
▁moved
▁perform
▁tv
▁computer
romagnet
▁тер
цию
▁routing
▁Trying
Kit
ɕ
Builder
DM
▁Wahl
adow
▁volt
Main
Size
ôt
▁charge
▁gobierno
)--(
lig
▁Engineering
▁runs
▁grey
▁Peace
▁modified
▁bod
▁wc
▁тя
▁północ
acs
ugh
arrow
▁dispose
cht
▁modify
}</
▁obj
▁rose
Symbol
▁u
★
ermo
▁fusion
▁Som
▁expr
▁embargo
▁permett
akult
sem
▁carried
ge
ône
▁númer
production
ony
▁Person
âteau
일
▁ihm
▁Frankfurt
ence
ListItem
▁Kol
 
bindung
▁email
%,
ónica
')->
▁Nied
arius
lists
COUNT
▁надморској
ilia
Points
ня
▁potentially
Components
ulas
Ge
ché
swift
▁glance
The
▁prefer
▁vš
▁Мон
▁Bomb
Bytes
ancer
▁Song
gat
skap
▁migli
▁carry
▁ended
▁Ath
▁rou
▁Sverige
▁surface
шко
ζ
his
▁Des
▁austral
▁еди
fc
symbol
▁поло
庄
вро
▁invoked
ime
Collections
▁inici
Opt
nested
▁Lamb
▁orth
▁influen
loading
plotlib
▁pub
▁két
▁fame
izations
ァ
path
ӏ
▁relativ
▁Morris
pent
triangle
▁Jeff
▁Matthew
▁accessible
▁introduce
Cache
▁maps
▁tun
DEBUG
iesz
‏
дар
ák
▁opposite
▁Не
▁Git
esso
▁LIMIT
rado
▁painting
▁All
▁redis
ление
▁off
ações
тв
engers
線
akte
curity
▁alk
▁august
ḏ
▁Memorial
umer
Server
owania
obs
¶
▁Leip
А
视
▁subject
Information
Ė
▁iOS
ouvelle
Relative
▁prices
▁mondo
▁license
▁personal
ised
amples
lac
▁Os
▁dispatch
▁einz
▁cum
▁Ehren
▁Ole
lecht
舞
▁gewann
OW
▁expensive
▁Sql
вали
▁golf
inación
ер
▁Bow
▁elle
ा
▁Summer
▁бе
▁Given
▁Ste
ema
▁installing
avigation
▁pointed
tr
▁Inn
Fern
▁Zürich
展
▁known
iez
▁ted
ython
▁ban
▁tar
Expr
▁notable
▁nova
▁может
лла
▁lugar
intellij
▁partecip
∂
▁Polen
мери
▁architect
utive
embro
▁cube
▁pushing
><
üb
TM
ativa
▁ann
▁один
▁green
olk
sys
▁Possible
archiviato
itä
▁evol
▁ideal
▁kill
▁podczas
horizontal
WHERE
рона
Delay
▁More
▁Web
cing
DA
▁websites
éra
▁прода
▁Mar
hind
learn
IAB
↑
▁icon
ющего
▁maja
Drag
▁combinations
▁Krist
▁foreach
▁visitor
▁Льв
Ste
▁Bind
Te
消
▁municipal
▁espe
▁Dire
<0x0D>
nię
кти
richtung
▁Better
archar
▁película
^
▁publié
▁kleinen
łod
▁as
▁examine
▁одного
pool
▁Га
FE
▁save
近
iesa
需
reme
achiv
▁demi
▁source
▁put
schließend
▁си
ML
скую
▁d
Layout
▁SU
▁$('
▁времени
ack
upper
▁display
▁'
api
▁incluy
entry
▁Nin
▁csal
▁FF
▁widget
▁Juli
▁feas
enda
Р
▁%)
arbeit
PF
▁Lok
▁permissions
dependency
▁numeric
br
▁crim
▁entr
ис
скими
▁для
ignation
▁py
ĭ
сан
▁tact
ríguez
▁ј
▁годов
cho
android
:{
zerw
erv
obile
}},
andy
unicí
▁indul
▁viol
▁XML
▁controllers
session
▁С
▁савез
▁‘
▁sever
▁tipo
ji
▁européenne
śc
Internet
ále
食
imp
▁omitted
▁joining
oted
初
▁falling
jos
unicip
may
▁Studien
▁Pale
тики
▁manus
水
namespace
▁conser
▁reg
BF
parent
▁%}
▁shall
▁circumst
inate
▁proces
▁verschied
▁reading
DidLoad
▁nel
ève
гласно
O
▁denied
▁darauf
▁nau
▁unix
argument
yan
▁Ward
კ
es
▁physics
▁therm
onom
▁Monde
Ver
("
ссий
▁models
⋅
▁myst
▁zero
▁java
хо
mac
','
▁Answer
▁sends
imate
emit
▁Astronom
▁Gran
▁retain
富
▁trabaj
пла
commerce
▁facility
▁Referências
chin
▁Рас
▁tired
Jo
▁декабря
pshire
▁секре
ゼ
▁zie
ATA
file
landa
▁parsed
">
ська
պ
поли
“.
▁públic
();`
▁galax
▁expects
▁unus
▁Linux
▁indicating
ран
▁Soul
agyar
▁pays
▁rá
ions
▁timeout
▁UE
▁Youth
▁succeeded
({
▁також
▁mathemat
controller
▁és
▇
导
▁discrete
Snapshot
▁illustr
öm
ги
isten
連
▁malloc
▁bind
第
asons
Why
▁callback
▁верну
access
uki
▁voir
"?
▁make
xxxx
uru
ட
upt
▁");
▁Console
Second
▁результа
▁live
▁раз
Is
▁Schne
ow
rès
}/
能
▁seulement
ə
▁patterns
aden
▁siglo
▁Mur
▁wojew
▁ignore
ث
ipped
▁redirects
▁Catal
▁used
through
тура
▁Tig
▁pels
▁procedure
ako
atively
зе
▁Pos
▁Ville
▁Voci
▁president
▁MAX
▁particolare
▁té
▁St
Standard
▁которых
ernal
▁await
ej
▁wordpress
dire
▁fuera
▁combining
▁disk
рая
chs
▁amb
вается
codes
▁calcio
▁never
▁forec
[\
▁BR
рд
▁Bibliografía
▁św
▁aren
▁LaTeX
eor
---
ске
▁къ
ten
ш
▁consistent
('.
▁svě
achsen
boolean
Manager
▁flows
▁hit
▁craft
▁groot
▁these
}\,
Icon
▁foot
▁obliged
▁lim
▁shoulder
мо
池
华
не
zeichnungen
▁Haw
▁I
▁Sang
zés
trace
▁Sample
⊗
▁iterations
ként
▁Publications
engen
▁harm
▁Lady
▁Was
Results
YPE
▁Pick
▁Limited
▁nouvelle
▁toggle
▁că
と
음
dimensional
oot
▁Verlag
forsch
문
dd
▁команди
종
▁motiv
Preferences
▁JSON
Express
delete
条
Jose
▁angularjs
axy
▁Ven
▁quality
Det
▁Williams
CLARE
▁Primary
▁Hmm
▁hardly
Part
Web
▁Quando
▁termin
▁położ
!");
argo
▁grass
≥
etti
▁Ludwig
Subview
▁Header
ján
▁Dy
▁Como
▁evil
anska
leg
▁Ти
src
▁println
▁españ
oser
更
évrier
金
▁github
▁}
▁N
▁st
C
ities
вер
▁Options
igare
aders
▁Dre
▁tempo
anny
내
▁art
fir
Invalid
строй
▁són
▁Una
wind
▁Ве
Date
პ
▁sia
Panel
bras
iech
▁fancy
données
lib
▁róż
ases
▁holy
lease
pios
▁Compos
▁Ox
var
▁nice
▁propor
▁tud
ɡ
の
ק
abled
▁bottom
dash
collapse
orem
▁Nob
▁Tul
▁mem
▁separate
¤
Capt
prev
▁desarrollo
▁szerint
▁Fre
▁seconde
▁Support
▁IDs
▁établ
rightarrow
▁Dom
project
տ
▁cart
ytu
▁fig
▁stat
▁ambigu
▁talent
▁permanent
▁cry
braries
▁bond
atu
▁bed
yles
udio
▁Kreuz
];
Ţ
▁Bey
路
▁azure
▁dalla
▁yards
iała
▁Store
]\
п
рення
itative
▁stop
amba
▁looks
()))
▁Voor
);
wal
▁substantial
▁Timer
▁social
Е
▁kde
estanden
Failed
▁vl
▁distrib
▁Mock
akov
▁alguns
collections
▁stato
▁Denkmal
фере
IP
▁which
ef
▁dependent
▁ещё
▁totally
owała
úblic
▁guaranteed
▁Universal
▁Cover
▁државе
urn
▁hack
▁vou
UserName
undefined
ි
▁Bres
▁Vis
enu
▁Split
lide
▁importing
▁Doctor
▁System
▁clar
▁Walk
item
olg
▁conscience
SK
▁Poland
нения
▁Maurice
▁Vir
Params
between
▁working
asy
▁maison
▁moment
amsung
izable
▁gau
▁rus
Initial
▁watching
▁Sebastian
▁privile
every
reader
서
▁Inga
▁Hein
▁artific
licate
達
▁Pie
erst
▁rom
ilty
▁Block
▁payload
LinearLayout
Si
ступи
uka
?>
aman
texttt
▁NAS
▁career
▁Mill
??
germeister
▁geometric
▁studied
▁Ne
▁Xcode
▁allen
exist
мін
▁stra
}|
▁б
▁wooden
ford
▁daar
▁sar
scheidung
ほ
▁second
ächst
▁manner
▁ered
▁newly
▁Nachdem
▁гор
▁little
uct
eni
ύ
▁Jun
▁SER
this
▁н
▁we
temps
ี
▁Depuis
pom
▁COM
▁cruel
bank
áv
Fire
ative
ias
Reference
ägt
parallel
жу
▁Kirk
▁shortly
▁Kir
▁campaign
ях
告
Info
▁pull
.~
库
▁Rhein
iri
▁burg
prob
gabe
▁внут
▁Install
▁April
▁towards
drop
owego
Root
trz
ян
题
thesis
▁sav
aturen
▁sums
eb
▁cinemat
was
CAA
▁Br
▁Wrest
street
Ne
тем
▁oraz
▁placeholder
форма
▁mistake
ces
▁Wel
▁boats
▁Его
▁nap
timer
Description
▁Zwe
closed
▁hoofd
zet
бы
cal
▁ката
<0x8D>
▁rac
▁debug
▁approximation
Om
▁offici
▁tog
ês
inder
▁Polit
fatt
usch
бург
urope
ξ
▁parameter
enc
▁Dal
夢
ῶ
ousel
▁heraus
cios
▁alem
▁verbose
ying
▁Variable
▁cogn
weig
prod
▁music
▁faster
▁ISSN
ра
▁Rose
▁grudnia
ono
refix
osph
▁Advent
ToList
▁brown
ło
жения
▁över
слі
▁тра
------------
▁making
«
曲
load
iness
igua
夫
▁Pictures
▁konnte
▁erre
™
▁halt
iros
▁fled
enum
▁Peter
▁Sain
▁probably
ernel
▁audience
▁find
省
HOME
▁benchmark
▁Lost
limited
PER
▁Basketball
▁har
▁Mens
clou
oka
▁degree
prov
correct
▁thro
erie
aware
▁utilisé
MENT
▁suc
arm
▁fonts
antics
ście
▁fan
▁nasc
ager
▁Christ
▁education
▁purchased
▁denen
ख
▁Сере
▁представ
hang
ica
▁Lind
陳
▁thread
ées
matches
▁popular
▁reprezent
▁evaluate
▁null
át
▁rib
▁Rena
ḥ
Script
等
områ
▁свой
parameters
▁nuevo
▁Great
わ
=\
▁diversi
lict
addy
▁ihre
▁fills
▁Storage
▁Ru
▁integrated
usc
west
▁Nau
▁+=
▁analog
erner
▁waste
▁engines
▁campo
chain
ives
Ø
Є
▁Phil
ltal
роз
isons
▁German
▁mouth
dal
away
▁greatest
ispecies
▁Wales
▁proto
ythm
▁beach
▁s
)(
Quant
ell
▁computers
IE
▁Der
ugby
Donald
rgb
▁také
ette
heure
▁organizations
mission
▁Jules
▁puts
▁Oktober
▁estudio
GC
看
Tom
▁Chor
▁Eb
▁equal
changes
jq
▁critic
▁nod
▁collision
▁Z
▁gemeente
氏
▁rising
GB
coded
versary
▁Physics
ach
bmatrix
fmt
Gamma
▁EX
GS
▁define
dictionary
▁[\
▁interpolation
▁utilis
',
▁Protest
▁executed
▁determined
ügel
▁género
▁welche
▁priest
构
▁],
chestra
ствие
▁angular
asts
ides
wort
▁<-
Ref
нев
▁Found
тів
Os
▁expanded
▁mét
▁Lear
ョ
▁both
▁outros
jo
://
annte
ko
pen
ared
visor
ἀ
visible
▁Polish
search
▁Bund
ership
Bu
DER
▁Story
▁cast
▁tmp
▁Our
elif
▁cause
essional
▁n
▁push
▁Einsatz
▁Республи
▁tack
Cla
▁серед
▁Lewis
始
▁bore
.*;
ponder
рів
information
▁cannot
▁mucho
▁sag
âge
『
ident
inals
▁logged
find
▁part
ool
Ъ
▁builds
лово
AML
span
바
▁Robert
▁photograph
iffs
▁onto
ystycz
OH
▁рас
▁cons
▁loc
▁hop
▁orient
▁кли
▁Иван
▁implements
inition
▁guard
▁reduction
<0xCA>
ア
bel
¦
▁ISBN
shal
▁exhaust
▁reviews
▁acc
ING
▁Display
oles
▁dernière
▁universitaire
irat
▁&=\
▁arrib
▁WM
▁comte
ван
▁Ada
There
▁drawing
▁Nature
hnen
нее
▁gar
▁Nieder
▁Dr
tables
▁commerce
▁bio
▁Arbeit
EY
ationale
▁Deep
wel
scheid
Radius
gravity
że
▁ara
▁ancest
ович
ють
▁mostra
cussion
ę
▁Koh
▁Alban
▁rings
▁Rés
▁spawn
▁sulla
▁bases
▁membership
готов
agy
▁Care
▁sugg
adas
▁ду
rij
计
▁ke
▁personnes
px
ա
▁prisoners
▁price
IK
юз
components
javascript
▁Ek
cpp
▁это
▁gehört
Output
▁particul
ong
▁afford
ino
emo
▁CBS
Arch
▁advance
implementation
▁rodz
ългар
▁ourselves
<0x1E>
▁Rub
▁girls
gende
▁meeting
▁lives
▁concept
▁mind
▁dirig
scribe
▁unf
fo
▁Vie
▁ID
▁neighbour
▁finish
▁fas
Ж
▁cic
▁absolv
тин
Here
ови
▁Congress
URI
▁ejemplo
▁baby
▁Qu
icago
ató
tid
unda
ouri
▁accept
▁fixed
ispiel
вей
▁при
colog
WP
▁::
়
▁Thank
▁length
athedral
▁Stanley
demic
arden
uj
▁correct
▁cui
▁зай
apan
▁Prote
auff
ynast
▁City
▁conoc
▁pounds
▁singles
▁Squadron
▁cloth
phys
<0xD3>
▁freely
▁moy
▁мая
онов
card
▁nuc
▁tricky
Zero
▁które
▁parte
lär
▁Svens
Hen
name
▁jack
▁Rights
aso
▁фран
▁vehicles
▁NUM
examples
▁phenomen
▁ży
ível
▁dict
%.
ummy
▁guess
fahrt
IO
esper
▁build
rache
▁Princi
edom
KEY
▁un
▁altre
blatt
avo
▁addr
▁legal
ostęp
▁Within
▁synd
▁votre
▁Bag
▁gover
▁информа
opf
င
▁happiness
▁dt
icked
zione
него
▁preg
rii
wer
▁Гор
▁руково
▁Hills
▁Muslim
glise
▁Administr
ńska
▁Collection
▁dieser
ками
slant
▁MM
чна
《
▁<?
wealth
ержа
▁order
ском
▁intern
мина
▁rent
▁вне
act
▁können
izz
▁wished
oli
zi
кла
aily
▁Kö
▁Bah
Processor
▁Leop
atype
indow
▁Kenneth
▁Temple
▁doi
▁espec
adic
▁Similarly
bage
▁//
▁Weblinks
anci
basic
▁appart
roy
▁восто
▁Pak
▁displayed
herit
▁Brand
ursive
▁libre
▁Fach
vard
processing
▁sword
}'
ta
поді
PH
мп
▁P
▁clip
▁jet
▁Red
äude
ode
▁вопро
dis
Bool
prog
ној
▁uninstall
▁живело
真
ES
/?
train
ler
▁lip
ступа
▁constit
books
olit
▁Raj
究
▁McG
▁tr
oving
▁grown
Groups
▁wealth
▁NSString
▁остан
▁составляет
integration
▁Stop
▁eth
▁Lob
▁году
тка
чко
▁figure
▁reference
verify
springframework
▁Unter
▁Navy
▁consultato
▁advice
▁benefit
▁steps
guez
adel
▁Francis
iche
ћ
stellung
▁moi
▁цар
ari
äh
▁EU
intern
▁Proof
tick
icas
red
▁Ohio
▁strongly
\]
bereich
▁Well
▁principles
▁гг
lied
▁Jam
▁fue
▁bass
▁category
ike
▁bush
ն
▁date
▁Dieu
hill
Θ
▁Do
▁properties
▁IX
ёл
▁términ
▁storm
zem
article
deutsch
▁Recht
▁allows
Number
▁codes
oup
▁Tour
▁Dub
▁fino
▁укра
док
olate
peat
EC
多
▁Vienna
▁bless
▁Print
ouss
型
illas
▁yield
ightarrow
▁verw
nes
▁Haz
<0xFE>
onc
Sub
▁Trace
which
▁estava
▁Portugal
Cast
▁lanz
dru
!”
▁квітня
notification
[[
▁Klaus
que
WRITE
Ț
▁pulling
kk
VO
seen
dia
zeta
cock
ning
▁segments
▁Пет
outube
::
ength
▁recommended
из
▁guessing
AD
UE
be
▁ton
conn
▁pis
ifi
ício
нут
Property
тра
▁Wiel
$,
▁Lim
▁Drag
rib
CB
EM
▁thin
N
xes
ittel
▁Hels
▁сторо
ക
wordpress
телей
▁Bin
terra
▁Employee
itted
=$(
▁Historic
▁Viv
▁pad
▁période
izin
▁струк
つ
▁FALSE
▁nested
ahren
Cr
rea
від
د
STATUS
▁Queen
▁flo
ude
zz
[]
usable
▁database
validate
▁Cec
plate
▁Made
еди
ي
米
▁supp
či
▁freedom
▁rius
plan
▁\(\
▁були
▁dent
forge
▁either
xs
▁mutable
▁refactor
▁состав
▁alto
Occ
Counter
▁GNU
▁gminy
▁követ
▁истори
mana
▁onclick
▁seule
▁eleven
▁Nova
ย
▁konn
▁dollars
▁guns
▁pł
svn
▁Rh
aged
erta
Μ
assa
▁latitude
▁Her
▁prav
luss
▁статьи
CONFIG
amarin
▁Gött
▁exc
▁Import
DR
<0xD6>
▁Returns
com
▁tex
▁edition
▁smile
▁cantante
▁poet
acher
▁ff
▁grav
▁magyar
iner
▁regional
▁Bischof
?.
rel
▁Ди
Material
lus
▁Let
ssl
iesen
▁Stuart
▁k
▁sedan
Ō
▁formatt
овин
▁Billboard
▁Online
▁label
лья
zas
▁zahl
东
metadata
▁lov
hu
▁compiler
▁inherited
▁член
▁sufficiently
paces
Source
▁verm
igr
▁hacer
▁goals
▁sched
▁sett
▁París
itory
▁спор
äischen
σ
▁iter
ova
▁ak
합
ACE
move
▁lak
]`.
textbf
▁Ż
ability
ston
▁amplit
esterday
▁Lith
▁fou
▁become
CLI
▁skulle
parator
▁Binary
▁Gem
лён
▁state
▁arrested
▁situations
▁Итали
▁grammar
includ
▁stores
▁Sank
▁kost
▁produz
curl
pie
▁Christoph
<0x00>
asm
▁ist
▁Kong
▁журна
grade
hö
▁warm
▁Finally
み
▁ownership
ウ
▁phone
▁Palmarès
министратив
▁Al
▁beg
▁instantiate
minister
▁Pro
▁opportun
ἄ
Recognizer
▁card
▁waren
▁otra
Modal
kter
feld
ment
▁reaching
▁России
▁Tsch
owned
în
ants
▁Chief
ião
▁sempre
▁Angel
ZE
itement
tutorial
‎
iments
▁adds
▁Singapore
ственных
▁Alb
▁checking
▁seine
▁ot
Br
Angle
▁стре
▁slov
▁oscill
mile
▁Bud
▁llam
▁re
▁requests
ellow
javax
▁Buenos
TEXT
bind
obi
▁especial
aml
▁commonly
▁traverse
n
ed
▁popup
▁Ltd
adal
riz
azon
▁feed
▁terug
dates
▁page
▁lies
,--
▁terms
▁completion
函
вшие
{"
▁Maxim
().
▁gravity
▁settembre
▁Medic
▁Challenge
▁Pers
▁Comment
▁equals
▁heap
▁v
▁Bez
Mess
роб
phy
Linux
align
buffer
▁experiences
▁financi
▁herself
RelativeLayout
▁diam
▁были
itor
▁earliest
▁mesh
valu
лм
лий
▁rel
ână
パ
▁pace
Admin
▁fá
▁son
tml
君
LO
▁Ин
▁verl
▁Neil
ivos
чки
▁zwar
▁cle
▁concl
First
ört
▁Desp
▁str
▁mill
▁conventional
mk
boards
Py
"));
ิ
▁Amazon
dating
▁Gia
▁La
docs
▁loop
jin
▁absolute
▁pint
lei
▁suddenly
▁chiam
MDb
▁powiecie
ж
▁jquery
▁gr
ract
▁│
ö
sound
風
▁bias
elter
▁Captain
▁pentru
iennes
wise
▁Reichs
ija
▁exercise
▁Georges
stelle
abs
Alt
udni
ums
▁preferred
▁Hoch
pet
Resolver
),\
▁Service
сон
▁partidos
yclerView
▁quite
▁X
▁constitu
▁updated
▁corso
jou
PAR
▁Atlanta
matrix
sizeof
▁daughters
onnées
미
▁lub
ulté
▁Dynam
▄
▁Он
click
Tools
▁Rep
NEW
iskt
ile
verband
underline
lige
amt
▁Under
<0x0E>
▁Staff
▁impl
Pred
cess
New
▁SI
▁lieutenant
bg
:$
sleep
为
▁bitmap
▁разрабо
ら
<0xD8>
▁challenge
▁morte
▁expressed
▁gouvern
cke
▁Bien
()));
')
▁continues
ème
▁??
comot
▁sino
Start
▁whitespace
*)
coll
▁Base
▁апре
▁provin
BS
lower
stag
▁Guinea
▁Vlad
▁italiana
▁obra
▁strutt
▁lassen
sv
rapper
▁Ві
▁cou
∷
ies
umption
▁attach
!,
▁orch
▁fri
▁temple
лог
▁activ
teck
▁estad
idente
Autow
▁efforts
стан
ljen
▁Success
країн
orted
▁CS
ന
▁tip
Once
ع
dirname
alias
“)
%"
etten
нення
tern
wn
commands
ктиче
na
▁gminie
▁Weltkrieg
▁tutti
▁done
ktop
▁Bour
ound
▁Sied
aum
tikz
▁miejsce
▁personnel
фе
struct
▁debugger
jal
шая
signed
▁Nouvelle
▁newer
arna
▁said
▁takes
Met
▁header
▁academic
▁inher
hd
ഞ
content
ghan
▁што
ftware
nek
▁Jord
▁Drive
▁argued
bourg
▁rewrite
▁Greece
Ha
▁Linear
▁self
бу
▁Пер
<0x0F>
▁началь
Sol
Stat
estival
mag
пра
▁dataset
▁Фран
deploy
ši
Dan
▁Finale
dm
▁osc
▁should
▁оконча
ole
▁after
▁switch
▁учё
▁smoke
ware
▁fixes
ག
▁tokens
Kar
annotation
▁Nederlandse
▁combined
▁Hessen
inha
dek
engine
дні
▁dign
▁School
や
тва
Api
▁conseil
▁Grid
erne
▁carri
▁del
▁improve
▁issues
double
▁teacher
▁який
Unis
▁jours
▁keen
▁von
ershell
дна
================
pl
▁Province
▁Alexand
▁tort
point
/~
▁bot
ющих
▁Ке
～
˜
▁scr
▁Ang
▁bean
сли
▁церкви
▁portrait
▁Gam
ije
▁estud
ial
ově
Path
dimen
ശ
Children
рій
▁erf
̯
outer
▁developers
▁external
structor
chk
▁Side
▁Gir
Fill
вич
ェ
ida
Parameters
auss
ScrollView
лением
sup
onaut
▁Zug
▁array
▁cs
▁modific
▁SH
≫
▁Er
role
▁Wolfgang
VE
▁filme
▁were
▁Canadian
▁ebenfalls
▁joueur
start
▁Gen
▁sacr
sel
ром
▁textbox
▁unh
德
项
CK
Lat
▁Full
ھ
tras
▁fog
(?
▁Analysis
シ
▁Mari
etu
▁держа
Pages
▁Mare
▁hy
uerdo
▁är
▁milieu
▁proven
unwrap
〜
genommen
大
▁Пе
▁binary
adoop
agas
cl
export
▁note
cou
▁confer
år
▁gem
rayed
▁откры
反
malloc
raction
socket
zien
▁Clar
ň
▁Tit
ively
дро
▁Italia
得
split
港
AST
▁optimized
▁вере
▁University
▁#####
▁referred
unal
▁ranges
▁встре
ição
imo
eda
utton
▁Bibliographie
▁Kim
▁OK
''
Messages
▁urs
CV
▁Hold
館
유
▁Mitt
方
▁capable
UN
бой
aff
framework
▁durant
▁'%
▁saving
▁Alle
urb
znik
ლ
▁Bitte
▁famil
esota
configure
ují
ң
▁Fro
ouvel
▁move
▁död
▁Licencia
Fil
▁Francisco
▁Геор
▁naz
always
anus
ms
▁positive
gas
periment
▁IIS
▁appearing
rizona
ceptor
▁manif
ový
▁eerste
▁parmi
няя
ҡ
▁bron
▁worship
▁c
▁AD
▁Feder
▁anterior
▁%>
▁Bolog
ushed
iber
▁Bun
▁Fin
▁exclus
▁rapp
Omega
rien
▁Communic
▁Finland
▁report
▁côté
▁Fac
▁Pres
▁klein
▁Données
▁medic
ichte
ම
anas
рома
▁hair
▁officials
√
起
ل
▁neutral
problem
▁сре
<0x9F>
▁Apol
▁Bast
▁cmd
Repos
▁Infantry
▁set
▁city
▁lok
▁Baud
<0xF5>
▁Jeux
Binary
▁Wer
▁Ham
▁lors
▁majority
ving
kv
ktur
▁acres
oires
Target
▁vote
▁ку
only
lers
"\
▁История
香
verein
bottom
сона
▁nuit
▁brut
▁Ги
▁pipe
▁Sunday
▁signature
♀
ガ
▁програ
▁finds
ijo
▁speech
▁third
御
ssh
▁historic
ư
```
empio
анта
▁Hero
logs
▁Maps
<0x54>
aves
▁Nik
ヒ
▁Kal
▁свої
ály
▁auxili
▁répond
sterdam
лях
▁Mark
▁euro
▁country
▁monaster
roe
ologische
▁previous
▁}{
imal
ˠ
▁dep
ść
plots
▁Part
ქ
▁tym
▁Archiv
▁Pierre
▁toute
▁revision
acji
▁кате
▁у
▁soll
▁trad
▁sr
irche
▁bars
▁соб
Spec
上
ční
▁Call
AU
▁applying
цен
img
oti
lak
()`,
rock
属
▁suggestion
prepare
GL
▁Cho
<0xE7>
limp
tagon
▁Пра
▁ther
English
dict
ペ
▁gcc
▁lev
▁replacement
▁restrictions
▁Europe
alone
▁Guard
sharp
entin
해
▁southern
Program
▁glob
▁Con
licates
▁Circle
▁laughed
éric
integr
▁shock
▁Sax
ktet
▁Cast
VIS
▁Class
▁Foreign
▁thrown
ize
▁transformed
localhost
akt
▁Para
ifer
irt
▁II
▁remote
▁ор
宝
▁Erik
allel
istics
▁kül
▁dis
Digital
ہ
anje
▁bad
▁gut
els
idan
▁sah
div
quire
▁поле
pping
▁wyst
▁иде
▁Kent
ep
oshi
aco
agin
tere
<0x19>
Progress
REE
float
▁")
ys
▁connu
▁Naj
User
▁prom
äck
▁neglect
้
ockey
▁usual
+)
Й
▁else
▁anglais
洋
ільки
▁mainly
▁Fig
ple
▁Authentication
▁hebben
▁tabs
length
érica
ható
imore
ob
itate
old
ィ
▁!==
▁Children
▁hé
▁unable
ból
hp
▁multip
▁quantities
сей
▁computational
iostream
mutable
ículo
anych
▁""
每
▁був
▁только
▁Friend
▁Linked
dropdown
ba
():
▁conducted
acu
▁Similar
▁március
▁Milit
▁began
▁aspect
死
▁клу
▁territ
floor
▁Lov
Contact
▁induction
ered
autres
obar
▁created
angs
▁decided
▁wood
blockquote
▁Relig
▁segu
▁February
▁dip
▁Audio
▁debugging
ords
▁développement
parser
▁timp
▁mapped
iges
▁attitude
▁ed
lique
▁tum
▁networking
қ
▁Roth
▁Sammlung
iből
▁descent
UES
▁victim
cluster
pto
Vec
▁restart
Î
▁Tor
many
▁aut
▁Vec
▁desar
oz
▁alberga
സ
▁derrot
]{'
qui
▁Holz
▁Basically
tt
▁arts
sens
ней
▁Yang
▁proc
▁Laura
aceae
▁rival
မ
othèque
sheets
ache
źdz
žit
▁Dez
»)
▁Units
owanie
fri
D
abord
▁Ryan
▁caps
▁{
quipe
▁golden
boa
ują
▁liegt
國
▁Ки
▁vita
▁conduct
▁ради
граф
ensen
юр
▁[[
▁Глав
▁trabajo
subscribe
<0x52>
▁Load
▁colour
▁Ruby
▁SP
▁Бе
▁usually
VC
▁лу
▁nav
▁foreign
▁costru
рого
azionale
▁Royal
▁Ve
▁ans
marker
la
▁assembly
▁Sac
▁Über
ery
zero
▁Bar
▁amely
fp
▁Stars
gro
▁mond
för
Holder
Local
adó
ifik
спе
oid
öl
▁summ
avano
TO
_+
ounter
мента
'],
▁ASP
ệ
▁Rio
indexOf
om
rivial
kende
nabla
resources
хода
这
⊥
▁Jack
▁ki
сте
▁multi
▁att
Back
▁favorite
▁equation
▁movement
▁prize
aille
▁schließ
▁работа
▁of
户
▁ned
▁resulted
▁sky
▁zv
\_
▁bunch
▁resident
▁több
▁with
мии
érie
cide
▁Cop
▁eye
▁país
Behavior
vec
▁upd
)",
⍵
amentos
▁пр
ud
uli
▁Kultur
дова
<0x42>
Butt
isecond
<0x2C>
▁Pir
▁reactjs
VAL
▁Archivlink
▁Hay
▁occas
▁город
▁dann
EMA
▁NO
program
знача
▁García
▁damit
▁histor
▁wieś
▁Azure
érer
hline
▁high
catch
liv
ъ
▁Provinz
Mus
for
flash
ièrement
▁Википедии
ulla
▁are
▁Elect
varepsilon
ROW
▁Dec
▁diverses
▁serait
shadow
▁Control
▁well
win
ähr
▁Север
rolled
eston
▁impress
Radio
training
ं
▁bis
laimed
▁when
rav
ész
▁Blan
▁important
▁usar
ówn
isf
odot
wür
▁ved
perate
:%
Exists
▁charm
▁annual
face
▁Mis
▁Clo
▁comenz
▁huge
▁présente
getElement
▁resulting
▁simple
Land
▁parser
<0x20>
payment
pped
נ
▁evaluated
드
▁Mort
Special
руг
▁biz
▁concern
▁creates
▁trait
▁compet
constraint
▁В
▁Ju
▁laptop
▁rounded
▁Boston
▁vary
except
▁hypoth
uma
.]
people
▁Pennsylvania
▁efter
cor
icional
æ
<0x4A>
▁Monday
aving
ണ
府
▁distinct
▁promises
▁calm
▁Boys
footer
ját
▁honor
▁estim
rog
▁staff
▁obser
arr
HS
ữ
avel
Â
icate
atholic
▁Claude
зне
▁pen
▁samen
▁ris
ucker
oly
▁Str
Assembly
Play
▁Ital
▁logger
▁surprise
▁ui
uls
▁Tage
ู
▁davon
▁Vien
▁th
WR
leq
ining
še
lesh
ikon
uda
▁alors
就
achusetts
▁Contempor
idos
?:
▁cycles
ugin
▁veces
ється
▁plants
▁corre
ピ
am
▁ci
cier
▁имеет
Month
▁Fem
‐
án
▁mon
▁Вели
▁Union
▁Something
▁або
┬
▁treat
▁besteht
uri
▁regularly
$\
cdn
feature
版
ческой
▁release
▁times
▁Ag
%%%%%%%%
▁retrieve
🌍
常
▁keywords
▁Direct
▁aufgrund
orton
▁intitulé
Prim
nelle
enten
([
▁Sorry
camera
лё
Activity
▁schedule
▁cookies
▁EP
▁cow
▁succeed
}_{\
▁pie
▁scen
▁relay
йской
▁scripts
enta
\;
▁Nevertheless
▁Revol
слов
met
▁sam
春
mals
▁несколько
aken
wirtschaft
間
ragment
▁seul
▁fen
aga
▁nine
হ
▁cub
▁Пред
.: 
riority
ilo
meter
▁virt
Ї
File
▁ceremony
▁Parlament
▁etc
▁Bald
—
▁corners
▁props
▁Perry
▁female
▁inwoners
▁notes
zie
̱
rund
▁fixing
stract
гов
▁compag
row
▁później
面
joint
eg
LEASE
▁ellen
ginx
▁Stutt
▁eigh
▁exempl
ito
▁станов
▁tri
useppe
▁nell
Front
[(
xa
▁Start
▁konnten
encies
▁preview
▁investigation
Channel
▁vest
万
▁lic
гом
▁Ell
▁bande
▁janvier
▁spl
▁generation
▁VI
▁mult
ggreg
▁rock
(",
▁вме
includegraphics
▁lad
HER
ards
catal
ât
▁beaucoup
▁nouveau
running
ommen
rik
ั
▁potential
ople
▁COUNT
nia
▁blieb
▁website
▁kre
▁popula
c
ництво
▁Lund
rece
▁jedoch
▁Dragon
母
ACTION
iza
vě
enez
orph
environ
same
œuvre
ട
Folder
す
マ
▁apare
▁Friday
▁Chrome
kar
orithm
comput
▁besonders
ABLE
▁Li
<0x5F>
лей
▁load
mongodb
nisse
▁summer
▁infinitely
▁Stra
Hash
UM
▁folder
enger
▁forme
▁sic
▁Another
leur
▁alcune
▁Of
▁альбо
ué
▁tie
▁Graphics
Fig
▁love
Center
▁May
▁stan
ída
regular
Object
eta
▁notamment
Á
▁reun
▁charged
kin
▁improv
▁pale
▁Ukrain
▁access
▁seat
衛
▁той
}:
▁Papa
amente
▁That
▁Wie
▁annotations
▁atoms
▁ng
ilder
manuel
staw
▁big
▁writers
orig
▁Brian
Demo
actor
mode
тив
▁reply
▁cyl
▁Гра
▁luglio
▁to
華
▁Below
ién
▁eren
<0xDB>
▁Ло
▁volume
iat
<0xD5>
▁light
▁wurden
林
empre
ziel
▁Horn
▁homes
ház
成
є
▁baseball
Marie
pages
▁тем
inc
fly
ares
▁Se
iving
▁est
▁Buck
bl
ouvelles
▁Stewart
sqlite
▁holding
opens
▁Paz
ikk
载
▁Pool
▁corresponds
ös
▁más
▁been
owe
ologique
▁jan
ondo
^+
▁../
RA
embly
▁onderwerp
LL
▁Config
ivatal
rijk
স
▁Ess
▁interrupted
▁orn
EXT
▁elles
▁Jersey
▁coun
▁posit
J
пен
rival
▁bzw
▁tales
▁совет
▁пі
▁Connecticut
кс
▁Apple
egr
▁Ist
Down
▁open
▁Chinese
ゴ
uk
rest
▁Ferdinand
Mal
ITableView
▁CHECK
Cred
▁saison
▁geprüft
va
tool
бе
▁maggiore
qa
▁premiers
▁clicks
minus
▁persu
кто
Remote
ے
▁per
Limit
Key
▁расположен
san
▁истории
▁må
tk
ations
hidden
àn
▁Heidel
▁lying
▁scalar
역
ć
▁È
▁questions
issen
uals
isses
ived
ela
uclidean
▁asynchronous
▁hero
iske
usammen
Inv
Obj
ὺ
▁propri
▁ange
če
▁world
▁Jak
illé
▁da
▁widely
stop
ux
经
▁Gall
▁compét
icity
ый
sl
▁expon
▁hello
qua
▁Richtung
izard
стве
▁Ernest
▁`--
aby
▁einer
ɒ
▁eran
modifier
Best
▁ich
NO
▁nazionale
▁typedef
▁exec
▁flush
<'
canvas
▁Though
▁Done
▁американ
оз
▁Ont
▁мало
>"
▁poly
матиче
ף
о
▁object
▁Metropol
▁pied
TeX
▁Gre
Dict
kommen
▁Насе
▁Marc
étr
▁op
dark
roduction
esten
стори
▁pot
İ
▁region
чне
▁conocido
▁communes
agens
cente
ensuremath
False
skiego
▁dost
kaz
▁Widget
▁Reb
pip
▁'./
DIR
▁Leopold
▁dez
▁particulier
▁safety
Pl
FilterChain
empty
▁Sa
শ
▁under
▁Municipal
cription
tau
▁always
▁polynomials
전
▁performs
voy
º
▁Rö
dflare
лові
▁Site
𝓝
este
▁AUT
▁Unit
▁each
▁Gemeinsame
▁розташ
ès
chen
▁през
▁somewhere
▁Gemeins
▁Music
ierra
▁puede
true
UNT
അ
▁probabil
▁accounts
kaf
shop
▁decis
▁Pat
▁septiembre
▁Совет
工
<0x6C>
oe
歌
▁vuel
ében
▁famous
bundle
▁następ
▁cook
▁hill
▁ули
▁Жи
zug
▁publicada
vos
▁dir
frak
ieux
▁último
体
ゲ
▁ll
▁tít
Հ
▁Fore
标
▁отно
Ч
▁виде
▁queue
el
▁enemies
▁results
ientras
oring
▁sm
batch
▁Moore
▁tener
▁seeking
aron
rica
lek
anni
zk
▁aliment
▁historiques
]{
▁mobile
▁•
++
afka
atch
лович
▁período
work
äger
▁Italiana
▁crist
urop
(
cus
▁extract
жи
▁Eastern
▁liv
kirche
▁critical
▁transmit
▁Indust
▁wen
控
)),
▁them
▁panel
zeit
season
bing
extension
▁duas
plugin
ɵ
▁Bonn
▁Food
▁head
exception
▁Israel
▁electrons
▁sprite
▁w
▁вре
Er
tatywna
password
мирова
pace
ེ
▁Because
=-
ющие
▁Colonel
▁estadoun
▁young
▁campionato
oster
on
łow
▁ihnen
made
▁Title
▁pixels
lemagne
abeth
mé
jna
▁invasion
virtual
ination
œuvres
म
cpy
▁anno
▁dz
▁heut
onder
▁powst
▁alternative
▁ups
▁челове
▁Marcel
▁kier
igkeit
ills
▁splendid
▁manager
▁benef
▁rely
▁cependant
expl
ན
assign
▁throughout
Detail
Array
BL
▁errors
wing
▁financial
taire
▁decode
▁komt
╬
▁José
seau
▁llev
▁уча
ை
付
z
▁paused
▁település
за
▁Sz
▁Scroll
▁origin
▁$(\
└
buf
▁changing
容
▁poco
▁settled
▁market
icrosoft
▁landing
))]
že
▁Bear
▁Bu
▁Um
JS
ollow
▁sender
sta
▁offer
▁wird
▁Heb
êm
▁Costa
фор
<0xC2>
▁Congrès
RES
▁spiritual
ût
▁proceeded
▁Court
uz
ip
▁Tournament
▁fortune
▁raised
▁rot
ье
mez
ʾ
▁▁▁▁▁▁▁▁▁▁▁▁▁▁▁
Author
▁someone
▁Londres
pandas
▁seconda
Net
▁comme
ientí
amy
hausen
▁characters
▁foi
▁hect
,"
▁frances
ippi
▁публи
ვ
getInstance
rey
Forms
Press
▁sample
▁measurement
avan
ensional
▁Hung
▁некоторы
▁П
β
IND
pur
мого
▁Ад
▁Hash
▁Tre
black
月
Install
▁Anderson
▁Prz
▁forming
▁Lou
▁сту
Dra
▁removes
Integer
▁Сред
▁Id
ď
ₗ
aze
▁context
ichtet
Ε
online
ober
▁pian
▁stagione
▁Derby
▁запад
Ze
7
弘
wedge
Objects
▁связи
kret
▁Republic
▁días
▁quoted
▁Список
úl
▁Near
▁colors
▁logs
▁Bibliothèque
star
Types
▁accused
comments
▁dat
▁eclipse
▁%%
▁Double
▁beginner
uber
Љ
<0x03>
5
▁mechan
шее
▁Weg
engu
▁cinco
▁duration
icale
iency
▁containers
▁exponent
▁publication
▁Поль
▁obs
Wikimedia
ет
▁subsequently
ROUP
kee
进
ill
entre
8
▁cuenta
prim
▁Internet
▁Guy
)},
="/
Dis
▁wor
тник
▁части
Projects
▁curs
Plan
▁shout
▁Tennessee
▁apresent
нок
dern
kund
▁inte
▁proph
eri
▁Egypt
▁яка
cis
▁стала
itors
െ
▁Task
▁général
use
роме
▁presence
ļ
▁Content
▁Ле
▁sacrific
Sam
▁AS
▁staat
,]
▁absol
մ
▁MAR
▁xml
▁Kop
cych
Plot
ahr
printf
üll
▁vectors
▁noted
din
ят
▁below
』
▁habían
▁eff
чё
▁cu
essen
Ар
▁founded
displaystyle
▁Patrick
▁gig
estr
▁intr
<0x57>
▁VB
▁median
▁них
yi
quad
illiant
▁под
Console
Failure
▁ring
ל
ader
itud
COMP
▁),
▁га
▁constitution
▁Mundo
Sum
mier
./
아
▁Об
WORD
▁discipl
Ο
▁Bundes
wod
<0x46>
3
abc
Virtual
[,
▁noise
bib
▁Description
べ
atem
▁Cent
▁UI
ც
▁coefficient
zza
Strings
▁fair
▁CO
install
<0x09>
▁Uncle
▁far
стана
▁fase
Annotation
techn
▁competition
▁torraste
▁province
SP
▁splitting
*$
ional
▁станови
▁correction
Smith
ce
Run
вед

active
жил
emark
ých
▁hundred
▁wer
▁мира
Ber
ក
基
▁зо
squ
слу
èrent
▁Heritage
▁techni
фі
wp
proj
AccessorImpl
consin
ua
ὰ
▁locomot
▁sacrifice
iger
▁Николай
archive
▁conf
▁един
▁испо
▁испол
Rout
로
▁Information
▁confident
▁Stadt
ancouver
ën
ächs
▁▁▁▁
▁tur
▁siè
bold
▁License
限
uve
▁Герма
ّ
▁absolutely
▁increased
Switch
angular
DATE
vi
π
arct
atol
▁которая
▁Pla
▁сайті
▁term
Seg
▁floor
▁přek
▁жовт
lauf
▁sorti
▁woll
rah
ци
▁opacity
▁fick
▁particip
▁busy
▁sod
福
zw
ematic
▁champion
scription
▁native
め
-->
wart
▁Greek
iu
也
▁delimiter
▁Running
asso
▁Geg
▁Singap
ча
xic
▁Connection
$?
gré
say
▁Must
▁abort
typeof
▁aria
▁occup
▁gegründ
cius
▁great
▁resolve
*
▁Capit
▁lipca
▁Sein
▁polar
▁acab
----+
▁inspir
istant
▁budget
▁caller
▁mentions
э
ól
▁directive
▁е
▁explained
rp
▁raising
▁Const
▁Sex
chester
▁updates
acles
▁bring
At
ská
▁repeated
▁получи
ற
▁Niger
ouest
pport
▁Hob
borg
jö
Dir
▁preced
acc
ués
▁Address
wij
entially
▁orig
▁/\
▁Montreal
▁ря
▁must
▁Про
CLC
WOR
<0x05>
asia
une
▁яких
▁Isaac
▁неза
▁dawn
▁Ар
状
▁convergence
마
ỹ
十
ds
▁echo
▁hearts
▁Wing
Bundle
▁API
▁sees
news
Doc
国
▁teles
ktr
ára
▁Provin
▁Glas
Institut
\,\
mlung
rac
▁Sw
▁ł
▁novel
itivity
bid
▁Rica
▁face
▁propriet
▁сбор
ated
IMAGE
owner
Settings
▁packages
▁slowly
▁visible
▁cols
binary
▁Lion
▁Watch
▁Net
▁mare
▁Bereich
▁sw
▁ent
<0xBC>
lieder
rome
▁title
prec
olid
▁fade
▁listener
yle
▁meets
PRO
}{\
▁republic
▁Air
▁Ali
Track
▁tego
DATA
orld
▁hr
¥
what
reflect
<0x36>
ната
leans
▁zá
▁befindet
红
▁Chiesa
quier
▁yesterday
st
Hint
смо
▁хо
▁alignment
▁numerous
▁Front
▁junio
gry
▁Touch
Organ
▁lights
▁rough
Window
enig
forms
outh
▁Daily
loped
▁bright
▁ricon
argent
▁ORDER
▁ін
asion
▁rem
▁Dance
▁Köln
▁április
▁tamb
ован
▁skład
▁oro
begin
▁seven
TV
<0x1D>
▁background
▁definitely
▁%),
▁recorded
csv
order
고
ac
skich
▁Wasser
▁ens
▁эк
▁vig
noindent
▁relations
sole
▁frère
▁regression
造
▁пов
▁Father
▁Visual
htm
▁garden
PG
mil
sr
▁ash
But
ycle
datetime
ACK
_.
▁María
ن
▁pick
▁pé
ē
▁Norm
▁Orchestra
▁rug
▁Wass
▁King
▁companies
="@
▁simulation
▁écrit
▁modelo
▁PA
substr
▁Culture
▁служ
▁Dou
▁cél
▁basis
lasse
▁vector
ね
▁Mex
five
▁mines
▁acceptable
▁jsou
▁ds
maven
Port
▁convolution
▁RET
▁Inside
▁improvements
▁Sent
▁государ
pro
▁pil
▁Constant
мб
longrightarrow
い
▁grounds
深
apple
▁`'
▁sheep
▁Django
▁november
▁прис
▁encountered
▁technology
east
▁arch
pkg
transaction
▁Convert
itsch
效
criv
▁use
▁me
pattern
▁script
mis
ząt
▁Тер
film
Ћ
▁Mach
ornal
▁optimal
if
▁Ich
Den
▁bugs
▁mob
ermeister
ý
▁engineering
avant
Her
cii
formation
▁checks
ented
令
Lambda
->
lish
ских
▁rivière
▁input
лев
qquad
▁MS
aine
▁Fue
▁"$
▁dan
zA
word
ism
▁synth
'}
▁usage
▁дру
▁containing
手
ęd
мож
▁ну
▁combination
гро
▁moves
пере
▁числе
▁Zusammen
uje
▁firm
▁tf
▁до
ewnętrz
inea
▁original
мей
▁Follow
мой
▁values
국
зня
▁stack
Aut
▁trakten
▁ноября
▁Ha
▁exam
▁vez
张
Message
ND
ւ
itel
strij
▁України
жен
aps
▁широ
ió
important
▁Happy
▁things
functions
>[
ды
ary
區
Chain
Mor
nc
▁Stu
▁say
hour
▁так
▁cinq
ounds
lingen
▁lleg
ynie
▁Ligações
teil
▁judgment
ző
▁перио
▁francese
rane
öder
cid
س
▁porque
olu
<0x94>
▁Geschichte
keyword
min
▁tam
ствовал
▁Corpor
▁DIS
▁$('#
rou
▁binding
気
atz
▁signal
▁муж
alom
▁men
▁гру
zyż
▁causing
家
▁Butler
▁Erz
כ
▁Kör
▁cluster
▁regret
▁failure
▁oltre
▁residence
▁Family
▁accompl
▁Google
▁elő
▁m
lá
ity
▁Cam
▁reve
▁corner
ük
Event
dk
▁quietly
▁dos
▁relative
▁lever
▁profil
born
present
▁apparently
ection
args
app
▁Cred
rak
▁notification
▁ela
▁Unicode
vek
▁marqu
▁Find
▁four
▁père
▁Ав
▁Crime
▁Medical
 
zy
roller
▁Groß
Mon
▁myself
órico
ree
reci
▁infatti
ope
ishment
aked
sime
▁int
▁дов
▁varying
▁metadata
▁Nä
extra
▁wy
pair
ج
形
▁wys
▁Pear
emon
imation
▁+\
▁miasta
▁flash
gruppe
gle
avier
edia
obre
▁Gén
Descriptor
▁Allow
音
▁figures
▁Clay
olin
icamente
▁Vit
▁all
iku
edit
▁addresses
ы
▁five
ébec
▁Neu
▁anticip
▁kter
rei
▁coin
▁ess
▁возра
BU
▁Ast
▁Johannes
Amer
Ć
▁Hass
▁como
pin
}})
esome
▁connection
▁thermal
pling
param
anonymous
た
чня
▁mom
▁sede
Secret
▁thats
▁Gebäude
ну
Transaction
miss
udes
åk
ől
▁LED
▁damals
么
blank
ére
▁Hollywood
▁vas
raid
group
ually
<0x2F>
Class
，
Ac
ovat
rules
▁ancient
▁executes
▁helping
▁meer
▁penalty
▁\<
▁архи
<0xAC>
▁бере
▁opport
▁belang
▁уез
▁Ö
fn
▁luck
quence
▁reader
VALUE
▁married
▁Lucy
amos
▁Luft
annt
▁National
}}\
St
Famil
flex
▁sizeof
▁sens
indexPath
▁Does
ollar
▁elli
bum
oder
▁Wo
▁pelos
▁css
olia
orith
nehmer
▁reboot
widehat
ír
ques
ero
▁Tools
▁amet
ivalent
чик
toString
▁Kru
▁hace
izioni
▁liquid
们
oauth
ran
ɐ
▁mixed
▁whisper
<0x81>
spring
М
▁ди
Gr
Win
▁modo
▁toolbar
gment
▁AllMovie
▁semb
▁Research
、
RAM
▁(\<
ictwo
▁trail
▁sido
ied
ossen
;;
▁Asia
▁kall
▁datasets
▲
<0x82>
▁strings
▁Pitts
чение
▁is
▁sorrow
Unit
▁{:
▁reasons
ські
▁produit
De
ніципа
cluded
rodu
лії
▁ray
▁наук
師
Future
ios
seite
meta
,‎
Contents
factory
ם
ież
▁Wikiped
▁enemy
▁texts
▁Philipp
▁prem
ione
gu
▁circuit
нологи
Enum
seh
çoit
வ
▁PM
▁className
▁formatting
▁obras
▁sim
▁zach
▁Éd
▁Спољашње
▁territorial
▁Univers
Record
colo
▁terminal
▁Bou
ivel
roz
▁avail
▁поль
ú
aient
unde
▁Па
ima
Go
▁millions
▁som
izo
za
/,
‾
▁shape
block
Graph
∈
▁Straße
▁church
erton
ു
▁rugby
▁those
▁Germ
▁consumption
▁Selection
▁quasi
▁Історія
▁Station
inese
oemd
driver
Star
omer
▁independently
▁verg
▁Econom
sourceforge
▁oppon
▁Wh
*\
ací
▁Situ
▁проти
▁degrees
▁dist
mit
▁Hook
зва
خ
▁chip
▁establish
╝
▁flags
\%
ict
▁donna
▁deriv
▁refer
▁ne
ман
τ
▁Jahre
PL
▁Python
ency
Ș
д
icana
⁷
ální
▁filtered
▁binnen
FL
iams
▁attempts
▁close
▁Am
▁Py
▁det
▁rappres
装
▁esc
>\
образ
▁Kennedy
zil
▁coh
▁kilomet
▁Пере
▁tea
▁Interest
▁Bur
▁Dean
clude
amin
▁Admir
▁fifth
▁sciences
[:
▁comment
▁lecture
▁tal
▁Capital
hes
▁(_
Wik
ández
вобо
▁Rost
▁lod
ung
忠
գ
origine
▁$_
antage
MT
leben
▁alternate
▁fait
▁Gott
entation
tools
estamp
▁State
▁lug
▁Frauen
✅
\)
▁expression
▁happen
▁constru
▁Campbell
▁pid
▁Commonwealth
AME
"),
▁direction
▁pur
▁carbon
leep
Platform
lost
何
графи
AL
▁/*
▁concerns
▁vä
adora
▁col
println
▁Diplom
▁liqu
▁инте
▁Ac
aligned
ending
stud
ську
olph
▁Month
irectory
▁tous
▁поэ
▁Activ
▁associated
▁zusammen
anner
▁Obviously
▁layer
▁prüfe
▁allemand
▁Us
▁keeping
▁passengers
6
шо
▁Bundle
▁econom
▁realize
ゃ
commit
▁prés
▁idő
▁people
▁appar
▁Voir
▁consumer
uta
▁execute
▁mkdir
▁reduced
allowed
▁região
▁dém
Vor
▁kil
tte
▁Ful
▁desen
Sound
refresh
▁zug
kord
цент
▁своих
FOR
itare
▁,
▁dopo
Wrapper
store
▁artist
▁ses
▁авгу
▁SK
▁invas
volume
","
▁XVI
▁inicial
▁age
toggle
ября
▁Man
▁web
писок
iak
ölker
unte
л
▁Zahl
ieck
neo
ộ
▁drums
etz
▁Ва
▁Gest
simp
Ј
Rest
▁J
▁kult
▁Apost
iker
}^{
▁bru
▁Sea
Place
secret
▁issue
ute
▁пол
ordered
ży
ográfica
▁sehr
▁toen
ongodb
▁phase
▁crossed
▁styles
▁І
istry
NA
gl
Memory
ona
­
▁Fol
▁Jahrhundert
zyma
▁Oliv
Student
▁Paolo
Amount
▁Констан
因
▁Cou
nel
▁Bed
arth
▁pride
▁saved
▁Вла
▁/**
▁Spr
▁autonom
Ò
mathrm
md
select
organ
ube
▁Gent
schrift
Diff
вом
▁equilibrium
▁которые
▁hinaus
▁DE
olds
▁B
▁Maur
cyc
BIT
ny
▁Ly
▁Agent
▁Ор
Move
▁img
▁Col
▁Medien
Grid
),
=%
zec
▁junto
PO
fois
က
isch
▁Label
acci
╠
▁Hamburg
▁vel
ة
stwa
Op
bol
Worker
▁Every
mas
idad
▁Corporation
uent
▁Mär
▁Rafael
▁fast
▁tag
ágina
▁express
▁write
steller
▁gre
rare
▁Conc
▁Milano
gebiet
elled
▁transformation
▁degli
ف
ulsion
▁Will
▁repositories
▁bereits
heast
▁fres
#,
Permission
inental
ünd
▁bene
▁Eq
▁corpor
▁internally
▁три
▁nac
ributes
▁conflict
MO
Enter
▁estimate
▁Mie
ッ
▁Mississippi
google
▁aud
▁Михай
▁пів
▁Дж
":
▁dicembre
▁Rich
Resol
absolute
ном
▁Madame
...,
шу
▁Turk
▁ABC
release
▁wx
}}
вания
▁pierw
▁remaining
▁grud
▁Jo
▁(=
▁md
▁Philippines
▁однако
сты
mannschaft
▁Encyclopedia
▁Symbol
▁quer
▁deleting
▁parallel
▁entwick
▁recognition
ław
response
yj
GV
Ḫ
▁Album
ῦ
rout
▁фе
▁aber
kind
▁Bru
inction
to
▁CC
▁CR
nil
▁voce
▁initial
ness
▁footballer
▁Parker
色
ország
堂
RED
Nil
gr
osci
▁didnt
▁$('.
▁generic
▁sost
▁fundamental
▁proportion
ei
▁Squad
▁selecting
god
ům
ningar
▁GO
ępu
▁Complex
perty
▁basketball
Conne
ribución
▁Josef
▁medio
slider
▁unless
▁scal
üs
Fernseh
▁kne
ign
▁descri
ClassName
tim
▁Ми
▁scenario
▁Ann
atter
▁operated
▁тако
into
ounce
▁tér
▁surv
▁још
▁la
▁measure
тно
NULL
main
▁univers
▁Jahrh
▁AB
▁серпня
liter
▁Monsieur
processor
ideos
ring
mate
▁ин
{.
inks
napshot
▁suggesting
▁tan
▁tunnel
eclipse
▁circa
▁granted
▁бі
archivi
]).
ouv
▁уби
▁Hugh
▁гу
ijst
second
Management
ज
(%
рю
ktion
▁filename
▁ці
▁slä
神
▁quale
!...
bbi
▁få
rypto
▁Beat
▁even
▁div
ِ
рт
调
oir
▁wra
ove
questions
setup
▁`(
▁участ
▁uk
lera
▁weil
▁estimated
хів
ppy
▁Mand
tero
▁Donald
▁algebra
Toggle
ố
▁június
▁liberty
▁três
▁größ
▁Kam
nofollow
▁vessel
▁Bh
v
▁dra
rique
heim
iemann
▁tail
▁"")
webkit
▁aus
Cook
▁film
gener
<0x33>
▁concent
▁remains
werp
▁antigu
▁so
▁transition
▁Spo
Inject
▁snapshot
ど
ax
унк
Ω
vic
jsfiddle
куп
▁décembre
▁libert
aru
▁fran
ister
्
▁Comm
▁Fact
▁ls
▁studying
itt
лище
About
▁neighbor
ว

ém
▁keys
▁revert
This
▁critique
▁cx
▁repro
igten
ʌ
▁helps
wik
char
▁href
Sequ
▁está
▁ag
▁breakfast
▁ksi
▁straightforward
▁Season
▁generating
▁dav
▁Normdaten
odo
▁separ
▁Di
▁`$
”.
ड
schaft
▁anv
▁Jed
▁cinema
▁kun
})$,
▁kv
▁pe
DE
▁toss
▁qual
▁cours
▁^
▁Fri
▁weap
▁á
达
логи
ached
министра
▁för
失
▁combine
▁going
▁imperial
▁cientí
▁Stat
▁soap
▁Author
ionales
▁(†
olog
▁SA
♥
rsg
▁aer
জ
lán
erten
▁post
▁ter
▁larg
ec
▁EF
▁década
▁vital
▁first
eness
▁transm
Language
╣
lets
▁RC
ierungs
protocol
▁club
▁tématu
kn
▁Ban
▁techniques
▁pes
▁Back
▁matrix
▁River
▁Bos
though
лося
▁siehe
awa
▁abb
▁stor
ER
▁unto
abestanden
`:
▁Definition
▁TR
▁rode
▁fiction
ђе
▁Кур
연
editor
▁registr
▁mentioned
▁disp
▁princes
▁sing
ampf
▁altern
▁Pok
destroy
▁Frid
▁health
ximo
▁Federation
▁rate
▁principales
▁deployed
▁lat
▁conte
▁klas
▁posts
iation
▁protected
▁CE
›
ذ
▁beskrevs
▁mé
▁&\
▁siècle
▁Fourier
▁Working
Router
▁lä
kiem
suit
▁servant
Non
NaN
▁HD
ivari
piel
▁CREATE
▁Cheers
▁browser
▁ded
▁denomin
호
ut
nik
▁diese
ird
▁membres
бра
▁leaving
otto
ément
▁ча
sweise
▁gradient
▁tempt
lier
▁Marine
▁Ott
▁rozp
анд
abe
▁performance
tc
▁завер
▁être
docker
$(
esch
▁vessels
yaml
▁requires
▁cr
▁design
▁Next
▁Andrea
▁francesa
ськ
border
▁Barcelona
▁conversion
<0x73>
osex
percent
▁isomorphism
Sal
▁Felix
▁caching
vens
cases
isa
ellij
▁постро
ュ
ør
▁"@
▁gehörte
istas
screen
▁Bron
▁Ein
▁Kr
us
▁их
▁Where
Constants
uman
▁Vitt
тета
▁живе
eral
handle
▁köz
▁э
VI
▁Alt
▁ambient
widetilde
雪
rence
ert
▁closer
▁before
▁Begin
▁youth
dest
ivo
▁wild
его
▁Gro
▁современ
reason
▁Users
▁enum
▁breast
тия
},{
▁obec
▁Mult
▁pol
▁study
opera
<0x8A>
▁ids
ogonal
Using
fficiale
tegr
urrent
▁Commun
rets
沙
▁Hannover
edes
Foot
▁hij
▁Fant
▁Results
ebru
ult
uto
Њ
ně
▁мор
▁enfor
__(
unique
▁'{
▁imprison
▁invari
▁theatre
ähl
▁setup
лемен
▁Core
▁finite
▁relatives
Les
▁Karl
▁overhead
▁composite
Cl
geber
▁Email
▁anni
▁"`
▁Bash
(@"
▁Sup
▁Official
▁который
▁Мі
▁mant
ki
xsd
▁entire
hav
▁advantages
▁Gree
ế
▁část
▁lon
endl
▁ice
▁puis
∧
▁Arena
▁zw
amp
▁González
words
xpath
▁aller
▁hel
e
earch
ifact
▁renamed
cellation
Index
▁days
　
▁columns
▁Jung
▁Japan
▁Mov
ingsområ
▁Juni
▁api
▁Fly
repeat
▁hitting
▁roy
▁травня
shot
▁delegate
void
﹕
Last
▁fond
▁jsf
▁election
▁trava
▁implementations
▁chart
Overflow
▁nost
▁étr
▁Future
▁dall
▁longer
▁син
▁Loop
▁erneut
Thread
▁Raum
▁code
统
Ent
▁Ре
uv
▁Five
▁presso
Public
▁.
Style
▁Moreover
clone
▁twice
jel
▁tim
ire
сите
▁tower
Stack
▁Zie
agine
pine
ain
READ
▁Mos
(/
▁CV
Rece
▁fields
▁intelligence
화
Pad
▁skill
▁ver
▁landet
generic
商
▁equipo
########
▁Bl
▁York
원
▁Pe
▁representing
▁Parse
▁irrelevant
<0x7F>
▁Dow
▁TypeError
▁match
lait
слід
adi
▁cleared
gon
▁Salv
▁credentials
▁Федера
▁Wed
▁bronze
LINE
era
▁hasn
▁Wohn
ór
▁Nicholas
▁roce
itage
ünst
▁diversos
'\
▁EN
▁как
___
▁mais
Three
▁Madonna
▁ét
る
▁growing
relation
лат
▁raz
Global
verage
▁shot
Extra
▁def
▁tor
scala
crete
▁Muham
▁replaced
▁begg
▁abitanti
":"
▁organization
America
output
▁ó
STATE
igu
ächen
▁най
▁Artikel
пису
()`.
atorial
▁Brook
▁Krak
éral
▁derivatives
ки
rita
ptr
▁Oriental
▁formulas
▁strictly
▁помощ
ま
▁départ
象
▁Edmund
chrom
häng
тар
_{{\
▁Québec
▁anywhere
▁difficulty
▁peuvent
▁rails
ByVal
ャ
▁suggested
érature
PUT
wrapper
黃
tres
ény
elo
▁Err
OK
▁danger
▁nobody
▁Wein
χ
▁planet
▁manip
▁ra
liament
very
▁sz
▁Texas
▁poeta
▁Magyar
▁nur
ര
▁large
▁adapted
ather
rial
▁Setting
▁fus
acing
▁tourn
▁twee
代
周
groupId
ások
▁consequences
▁произ
mill
▁dog
▁й
ǎ
▁цього
▁grade
hos
Foundation
etal
thm
>/
▁Navigation
ött
там
▁sooner
Available
▁brain
zech
Man
▁evaluation
)];
▁nella
▁huvud
▁Mic
▁Ев
iful
Thank
nederbörd
ZygoteInit
ulture
лия
дій
▁ecc
Մ
▁seed
czy
▁broad
leb
▁Maler
▁movements
yal
simple
Hi
▁mag
бі
olis
▁policy
jer
▁token
▁вико
▁caused
ATH
▁assist
}$$
infty
▁anglès
Introduction
AAAA
▁тради
eder
iera
▁Champ
ention
rai
ственного
pol
том
Fl
arma
▁Art
▁Einwohner
ϊ
nico
▁Eng
▁LE
Anal
Ю
▁még
ven
lament
ée
Div
microsoft
▁weer
remote
▁Paulo
approx
iar
▁returns
▁nucle
Fin
▁NEW
ols
áš
▁Anto
▁sop
新
▁trag
▁CG
▁found
vern
▁Est
▁Cher
▁attacked
queue
▁nuclear
immer
▁Keith
}^{\
Dev
▁první
▁Russian
▁Rail
izi
▁fib
oco
▁slave
▁beaut
რ
▁Hence
▁alternatives
川
пер
corr
cook
ourd
์
ilog
CT
▁garant
atial
▁externe
▁constructor
лом
(.*
▁Odkazy
▁cycl
ead
▁Single
▁Indeed
▁See
javase
▁diesen
▁développ
▁erfolg
rend
рит
шей
▁kunnen
▁listening
雅
▁early
ниципа
▁aveva
rame
unden
▁flying
<0xF7>
▁pó
▁kor
▁verf
V
▁Airl
⇒
▁relax
indi
▁pool
▁spirits
▁Pract
hips
▁Epis
▁frame
▁stolet
▁trem
ategory
unted
ccc
<>
phas
▁cultiv
▁volte
▁low
▁selector
▁отри
二
aza
atus
ss
▁Ye
pton
▁zeit
oper
sters
喜
ब
dom
▁Ya
▁Evangel
▁{$
▁primi
▁demol
य
checkbox
~\
ährend
ourn
▁ще
所
FA
▁axis
▁space
▁erg
▁tard
▁regions
▁Att
ი
▁oko
▁lit
▁CURL
Pointer
▁Small
Loc
▁bro
▁família
▁roz
skie
ulen
▁accom
▁Disc
áz
▁Bibliografia
istor
remark
ckets
▁cro
▁DO
▁daily
uss
▁hes
号
}}%
▁wrest
elines
▁civil
网
▁zog
Client
▁picked
aria
oust
ком
▁DAT
▁dual
▁Zwischen
击
IMA
cut
вши
sert
▁dissol
▁Grand
▁Auch
▁condem
LA
▁here
▁Ry
▁^{
▁gan
▁vij
▁cy
▁Cambridge
Title
uns
ves
ев
▁wounded
▁Nie
flu
▁zo
▁î
flags
▁Error
▁bord
jourd
▁Lil
deg
ignon
▁Sint
▁basically
<0xB4>
tabs
▁Wien
kr
ĩ
▁Figure
▁China
▁Schloss
▁Germania
▁Kno
arguments
roc
▁automatically
▁desire
▁inf
两
package
▁gep
▁analyz
schemas
publish
▁Kingdom
▁ers
▁Robin
uet
lege
▁votes
▁Dienst
yntax
oor
ザ
erni
Package
Ét
▁Henry
▁Klein
own
▁aqu
▁feeling
▁Ra
contains
▁jQuery
▁negative
ങ
▁diverse
mail
▁G
▁obey
ost
▁dátummal
▁Accept
▁Hans
~~~~~~~~
UTE
▁movie
▁июня
▁abgerufen
▁Goth
▁Бы
rola
là
▁'$
▁animation
信
▁вс
jl
▁ought
▁ér
mod
▁sk
▁ју
▁dates
▁remembered
below
etto
skim
agers
TagName
▁Target
emer
勝
tok
▁utter
▁could
cler
▁gel
▁nyelven
▁entonces
['
▁Grund
K
iop
▁má
maker
▁Database
▁tomcat
RL
although
eduled
packages
ças
▁Selected
IV
：
乐
▁cru
▁Cer
▁Dialog
ण
▁manten
▁recensement
ffect
Since
VALID
▁African
▁Son
▁banks
▁observe
▁ry
▁Girl
☺
uge
▁estado
LETE
tom
ex
making
▁Edition
▁ihrer
▁Sud
:]
ls
▁min
▁Agu
iles
Ã
▁forever
untime
agram
▁now
aha
Args
▁Bang
▁северо
trans
human
▁hard
каде
▁woman
cdot
▁||
▁dioc
▁Assert
IDE
▁okrę
▁printer
▁Framework
obil
▁Franco
▁Race
Ա
▁Atlas
▁gateway
▁заме
door
stdio
▁Best
▁Mag
▁protagon
▁bit
Lower
Device
ában
picture
utz
▁notifications
▁statistics
▁хозяй
iegel
▁Sym
dh
циональ
▁Prozent
▁Six
▁indices
▁thinks
▁prost
▁Ig
рож
▁Giovanni
▁Road
author
ln
Ö
▁telep
▁Chi
▁navigation
▁znajdu
ui
▁Parameter
()->
kreis
зиден
ahn
▁até
▁pretty
тература
▁Cannot
▁`\
▁Hospital
atic
▁кі
▁gauge
weise
nehm
▁Zweiten
▁mp
▁optical
▁пес
<0x07>
astic
ambiguation
▁Sun
▁thus
▁\|
ijn
▁hold
urk
▁prakt
ám
▁Lo
▁Gary
▁Wik
Longrightarrow
unkt
▁bear
▁static
    
▁жі
▁Bro
вана
▁музе
▁revel
Left
▁fol
Audio
▁дра
▁Kaz
setminus
field
ideo
▁Demo
▁chiesa
azar
six
▁doctor
▁gy
▁yet
▁обу
▁Json
╦
шим
льных
▁Gal
тур
tober
цер
▁alphabet
Graphics
▁gram
▁taking
ählt
å
▁Dol
<0x68>
worth
▁Jorge
▁Territ
▁attempting
▁wall
▁decor
▁имени
IONS
ления
▁needed
▁text
▁snow
崎
zony
▁Token
▁na
▁§
▁unlike
▁Correct
▁Bor
▁recent
Italia
▁React
▁intent
▁acht
mine
album
▁plots
CCE
оне
▁Java
▁ensemble
▁end
ieu
ción
rab
▁tender
ally
lications
Length
Properties
▁endpoint
▁matches
▁Sk
▁ok
▁sorted
ʋ
▁Ferd
omega
They
或
бур
▁_{
<0xBD>
né
forall
.")
ories
▁media
▁Krie
▁Nicolas
pler
зидент
▁Pap
ye
stan
icano
▁awful
○
▁externos
geme
▁BY
uliar
▁држави
bas
▁larger
Univers
▁Prag
▁hang
UPDATE
▁ори
<0x7E>
cret
itan
▁Nag
▁послед
秀
▁judge
▁{};
LIST
▁circumstances
ấ
▁surrounding
▁Campe
End
Reader
▁Bird
eton
ätze
▁vague
▁settings
▁producción
atge
▁perf
ahu
▁Dok
▁Nel
=&
cow
▁treatment
CH
▁MY
ército
▁sand
▁energy
▁stupid
▁presidente
d
▁Mau
ён
▁tables
anzen
▁ao
▁represented
émet
▁rules
▁Mans
вая
▁Beth
▁curious
▁screens
clic
▁committee
▁setting
▁dying
▁oracle
▁restriction
▁Ressource
▁parties
outs
▁jaar
msdn
▁Sr
aments
▁bew
▁greatly
<0x3E>
bounds
▁ante
THE
▁Wa
_{
▁discussed
▁Ireland
Theorem
raum
ли
dbo
vey
▁defeat
▁camera
lande
▁Bedeutung
▁юго
property
▁â
▁ski
▁Щ
ß
▁;
▁experien
more
types
▁philosoph
ços
ilar
▁öst
▁Cooper
▁moder
histor
▁копи
udi
scene
margin
кономі
▁Law
▁spark
zetek
▁commune
▁TH
.-
▁Smith
▁house
▁квіт
know
▁составля
gradle
пон
▁Mul
▁terminate
▁Österreich
▁Ty
game
ese
<0xA4>
fica
▁проце
▁Botan
▁Ira
iji
▁looping
输
})$.
▁traduc
▁driving
▁чтобы
▁Guer
lang
ский
▁~[
museum
▁modifications
TIME
network
▁Since
Managed
▁пла
ће
lies
sec
▁fémin
▁schools
▁debut
▁proportional
irk
arie
ancy
National
▁defend
▁mely
▁cadre
Fran
▁target
将
▁useless
WF
bles
▁Emperor
▁\{
▁aunque
ków
ours
▁verso
ea
ohen
phe
illon
▁IBM
▁dispon
ichtung
usqu
▁draw
developer
pril
ursor
÷
▁я
icians
uby
▁fut
aws
加
à
▁representative
teen
▁Famil
ifest
▁BBC
火
▁educ
▁Mong
▁costitu
▁ceased
昭
getValue
Phone
▁kilometer
нів
▁clients
程
▁Eins
▁disturb
KB
áj
▁Cle
▁Who
▁corrected
▁cron
▁Coast
▁loyal
▁за
erek
anos
speed
Setting
▁entrepr
▁posted
isti
ERS
ціональ
▁змі
▁Фа
тера
▁Selbst
▁fins
onas
▁sou
Hot
▁valor
▁дей
▁Santos
▁Anna
cient
nius
▁attr
▁twenty
站
▁stro
].
▁piano
▁forcing
ေ
ре
▁Wille
тя
▁Ét
▁реда
(\
▁primer
▁Dor
▁которого
edish
aggi
▁niveau
IVE
,'
▁listop
erem
ġ
boBox
▁Justice
▁autor
▁arrival
▁plot
SE
▁sono
▁років
지
▁Politiker
▁či
PRE
▁festiv
▁passion
▁Earth
▁gallery
ە
▁круп
▁Quebec
domain
▁filter
▁ло
ження
▁мате
"];
ŏ
‍
▁arriv
▁sist
▁phases
▁payment
▁humor
spark
ბ
▁canal
defin
▁Sue
walk
▁recuper
loor
▁cav
▁Spirit
fficial
▁vs
▁Select
▁sowie
▁enfer
▁Politik
owym
▁agre
▁dock
▁LCCN
ho
Я
न
▁Beispiel
▁body
▁которы
Thanks
ב
parameter
▁dressed
▁bata
皇
▁Foot
ommun
▁Mal
▁app
▁==
▁tart
endency
compiler
▁identification
ikes
}),
▁кра
έ
▁Bod
ims
▁exclude
▁fight
▁disable
String
':
▁SUM
▁SL
▁Nazionale
▁`-
▁scroll
▁Bool
▁исполь
▁меда
▁LIN
thing
▁get
▁Jul
ей
▁Bernard
щение
▁ocas
gray
▁Ра
LIN
▁wł
▁Ана
efe
▁hot
izing
js
inture
▁насељу
visibility
▁guarante
Bbb
enf
subfigure
▁mouvement
onn
eting
EB
▁cross
ografi
▁ett
vid
▁nature
▁thumb
▁Nash
▁горо
أ
▁simply
▁wz
▁обо
results
press
▁lin
▁engine
ifiers
▁Sport
▁административ
unas
ViewModel
▁module
▁receives
▁выпу
▁Thé
▁linux
▁#
▁Arist
mort
▁Hi
mx
):
▁Several
eing
▁hurried
▁Binding
----
如
▁mondiale
▁извест
ome
▁take
bishop
right
▁doing
▁mesure
omo
▁Werke
▁Down
▁Sü
▁Mutter
fm
ত
<0xA3>
Cor
有
▁density
▁nim
￼
▁daughter
▁delete
Db
▁particularly
edi
KE
ǧ
▁have
▁mig
▁ekonom
▁Rot
▁threat
џ
iale
▁Dennis
ि
------
▁(*
lass
ональ
▁month
▁Kab
хан
aba
owych
▁q
▁tax
▁apart
▁рабо
군
AS
Lib
▁Portug
▁clearly
▁Государ
big
▁Leon
▁Notification
ixel
▁Wars
▁Fast
▁registration
plugins
rass
▁approach
果
▁facebook
Pane
▁manifest
▁Techn
]
нина
won
▁on
rés
SESSION
▁bapt
西
ɯ
▁Would
▁mús
▁изу
▁Украи
irs
itto
▁finally
▁slice
▁кур
▁relief
bad
IES
scr
ografía
acity
cha
▁intervals
▁Нью
“
)){
▁roots
▁associate
▁regime
צ
▁examples
处
▁Duke
▁ausge
Ź
Storage
エ
▁ap
▁boolean
▁trou
Region
▁Template
itled
▁Ach
▁criter
▁i
▁Source
E
ío
▁Ср
ionali
oud
▁arbitr
̶
▁excitement
ische
▁Russia
▁uses
itatea
ultado
yk
▁()
▁psych
▁Host
▁ty
▁données
mbox
zeichnis
▁Iran
▁Pit
▁Diet
▁ří
}\)
▁Give
▁lst
hre
▁Community
通
hin
▁diferen
▁railway
################
atia
irth
श
▁rang
▁special
▁Cin
▁Speed
도
▁ос
▁rin
▁promise
幸
veis
Z
GN
▁osob
expect
шка
▁much
▁algunos
▁Aug
▁Одна
▁significance
.”
▁advoc
▁Detroit
▁program
聖
Process
▁Har
▁famiglia
▁erschien
▁owner
nings
▁esta
▁sparse
▁Equ
▁Conf
▁Qual
?"
opts
▁chunk
co
▁Lö
▁"[
cip
mid
▁Hä
▁sols
▁Reyn
▁batal
(`
▁Mig
▁metal
▁link
даго
▁Sit
vider
▁adapter
▁medical
amma
antine
letter
wed
мира
▁Emb
▁anche
чного
▁aws
▁stock
zone
resize
▁przy
enders
}(
ocal
ising
▁randomly
▁refused
▁building
▁felt
resse
▁Stan
fahr
▁nick
▁prowad
▁nem
тика
▁tm
enis
ort
дена
зы
vol
cknow
▁ahead
TB
▁bý
▁archiv
▁Giuseppe
▁без
▁Liverpool
Cursor
antes
et
▁opts
朱
ă
▁ship
ederb
▁clin
коло
▁Firefox
▁PRO
▁upgrad
▁hö
▁специаль
▁neck
Cells
brains
▁year
▁Ever
été
ческие
bool
ativity
шой
▁extended
▁variables
ectors
▁(„
.
▁agr
▁defaults
▁gam
enario
▁experiment
bah
Perm
▁asym
дах
▁ocup
▁built
▁worthy
onds
ART
UR
▁Cultura
陈
ype
▁limitation
▁multiplication
▁incor
▁frequently
▁dy
È
▁під
▁souvent
Header
▁второй
vous
▁Els
})$
▁during
▁куль
*,
cf
haus
ographie
▁concerned
▁Коро
▁Augen
ό
▁Metropolitan
▁pages
ines
ْ
gression
▁Brown
dj
os
▁Pop
étés
▁exchange
▁MySQL
}_{
▁ri
iels
ake
pson
жа
യ
▁Sports
▁Wood
▁astero
Mr
zt
▁Dim
▁▁▁▁▁▁
indo
cas
<0xA1>
▁Ген
<0xE5>
inf
▁Antonio
▁Face
sef
age
Origin
вший
new
Shared
▁Bras
ocus
kwargs
Chr
storage
▁blev
uba
holds
▁net
ひ
ammed
▁doll
▁fos
▁Shakespe
▁Harm
Authentication
▁lem
▁vain
gue
chia
зии
Mapping
ha
}}(\
▁Seems
▁squares
express
presa
沢
(-
▁inserting
▁jed
▁Len
▁cd
▁após
删
▁jeunes
Word
▁Fichier
▁ви
▁deux
▁Tang
printStackTrace
ją
usb
}}$.
▁hade
ansen
▁DEBUG
▁Sim
▁autory
▁pam
▁triple
СР
har
▁elect
▁ende
$),
相
▁apolog
▁gepubliceerd
vm
▁interest
▁Trust
CI
Pan
▁Even
fal
jud
ძ
▁fatto
▁double
itzer
Ext
ider
▁Buddh
▁Между
omething
agn
術
ke
▁Apache
▁INTO
ễ
▁Betrieb
пы
Iter
▁duty
▁wrap
▁▁▁▁▁▁▁▁
▁Loren
▁milk
⚭
▁Цент
र
▁eval
odel
ène
▁Flow
ither
▁dare
andas
Jac
▁kB
▁mach
▁викори
Values
NS
▁minute
adrat
Ÿ
▁radius
<0x22>
▁sera
CheckBox
aty
▁loi
▁Span
▁Rak
first
▁assertion
ká
▁Casa
▁Å
▁joint
ánchez
Foo
▁en
простра
ċ
nahme
umar
nej
▁Chan
▁Count
▁annot
________________
▁kein
▁half
▁Ian
PropertyChanged
▁evident
プ
▁Formula
)|
/%
tain
Jan
egos
▁conqu
▁élections
ipeline
вого
▁di
▁mm
▁literally
"
Write
hn
▁Orient
▁годах
тен
<
publique
▁Additionally
▁descript
Uns
IGN
aspx
apy
▁direct
sing
▁europ
▁tons
▁Michael
OUR
▁Но
;}
sb
▁reven
▁Colomb
▁número
▁gegen
///
scan
▁Product
▁Comp
ión
сько
泰
like
arus
includes
▁into
AK
uez
▁<=
kg
дови
▁turno
coordinate
▁merely
<0x9B>
▁Geme
▁Mother
iš
▁March
▁poison
–
ibrary
▁week
ńcz
▁führte
▁Player
лекс
▁ту
ged
▁jar
▁casting
AMP
Ant
▁пар
▁meat
无
期
éter
▁trip
则
▁República
▁rather
中
▁material
▁r
▁Bib
HashMap
▁Queensland
oming
▁bo
▁demonstr
▁($\
▁ED
ř
▁applic
awt
▁assemb
iformes
▁msg
<0xCE>
ften
▁printing
element
▁corpo
ists
bei
number
before
▁Års
▁працю
▁predict
вез
▁equipment
ciente
▁process
location
ряд
aho
пей
▁sn
wicklung
▁Saf
▁prove
▁Hey
▁unsafe
ton
▁проф
▁Гре
▁Collegamenti
▁foc
▁dop
▁emp
▁weather
▁сла
▁Luis
▁Dabei
oin
▁Sierra
Ret
etic
iec
▁args
▁dimension
laim
▁mongo
works
▁"...
ѐ
▁Narod
▁RE
▁bits
▁cz
显
▁Kirche
FileName
▁Its
ским
▁iPhone
▁AWS
▁Воло
▁Cape
▁surely
▁press
▁уз
▁locale
▁Drop
▁kleine
CE
▁gate
▁contain
▁separated
▁Brasile
equiv
Item
▁complet
resol
Users
legte
ą
▁Alexandre
▁newline
▁Edd
het
▁typescript
Load
History
cloudflare
▁одна
▁Rewrite
▶
ignes
vised
▁карь
ells
▁Städ
▁municipio
▁Gard
▁definitions
при
k
▁highly
▁odd
Ready
errors
lava
▁produ
poses
schau
opher
th
▁Lag
▁otro
ляр
▁costs
oi
▁engag
▁processor
James
▁induced
▁równ
ite
validation
▁Edge
▁devient
▁adopt
▁environment
Gi
▁Wait
ніципалі
▁sechs
▁seem
 
▁попу
laces
▁vent
iftung
道
ур
◦
ized
▁música
▁occupation
istische
▁zm
ola
▁similarity
▁футбо
▁index
▁plan
▁sil
▁tem
▁Desde
launch
Tables
▁pon
▁yellow
contact
▁lower
▁effect
VP
▁infl
▁maggio
位
▁Gun
▁З
<0xAA>
GET
ubernetes
▁ville
▁дву
▁Мак
ific
equ
▁tournament
<0xBE>
gestellt
▁включа
und
urg
ourses
▁reads
Access
édition
apply
▁mighty
▁Mak
▁Ten
▁agreement
PHP
▁Herr
▁```
▁Louisiana
assert
▁Study
чан
ació
▁Poss
▁info
▁intens
▁listade
ろ
<0x02>
▁impr
▁texture
ńskiego
ion
énd
▁…
otic
ryption
▁spectrum
▁between
▁pog
imm
▁simult
ist
▁despite
▁salt
▁Editor
▁petit
stage
▁screenshot
the
▁lid
▁shapes
Free
▁carre
▁scala
ön
<0xB6>
▁"'
▁proxy
▁Хро
ћи
▁Comics
▁plant
ango
▁stup
▁Лон
ゆ
▁dur
▁année
:\\
▁Ear
կ
▁Original
▁że
▁resultado
ô
▁issued
site
▁Sky
▁bât
▁wieder
izio
<0xA7>
▁class
hh
▁exer
isy
élé
▁entra
▁United
▁Public
Android
⁸
▁Unix
Europe
▁Disk
▁ou
at
Қ
▁pc
▁opposition
9
level
lder
▁ellos
▁consult
▁renov
eli
▁rights
▁Development
VB
▁concurrent
▁frequency
▁minimum
ת
▁Пи
▁aust
▁football
yz
▁aside
▁decre
▁’
ნ
lès
Active
▁sources
▁He
▁begann
▁returned
]]
mer
▁Ur
▁distribu
intrag
▁Seq
ネ
▁pilot
▁Ocean
▁Gazette
izzata
▁Geoff
▁?
▁fright
渡
▁upgrade
▁Atl
▁Lista
arin
▁политиче
iony
▁По
▁ч
ำ
chan
▁Mais
塔
▁leb
▁Professional
▁seconds
▁Past
zte
▁truth
FAULT
вся
▁Liter
ブ
="$
arian
▁condu
пар
▁ged
▁Роди
▁provoc
▁Cov
▁fn
atel
▁incident
1
isión
▁managed
▁namely
PORT
cn
ieving
▁vari
▁Luigi
▁listview
▁headers
▁coming
़
▁controvers
▁місце
▁Sub
▁PDO
▁opera
▁todos
well
▁warn
▁Ł
▁стать
öv
▁commercial
▁установ
olo
▁inse
(.
▁pů
CN
▁Fo
▁Pl
non
▁Academ
▁car
Lar
▁merged
▁intuit
▁pour
▁forb
▁Wat
▁Komm
Tube
ł
MODE
Return
▁заня
NF
▁pron
▁bent
ал
bullet
io
onyme
ored
owi
▁Philadelphia
▁Ref
▁request
▁ye
院
nsylvan
角
▁Write
тор
▁mich
奈
fas
fit
▁vm
▁lider
▁—
фици
▁dbo
тря
▁zam
▁wed
▁Pet
▁och
▁des
任
iveness
▁After
▁statements
▁calculate
wy
配
läu
▁rod
ḷ
tex
sson
elte
ді
▁assign
原
emy
▁Angeles
▁outcome
▁rond
▁inserted
▁lips
Count
▁moreover
▁treated
soci
emor
▁després
Sequence
)):
▁effective
▁siempre
▁James
поло
ab
_,
BUG
▁verte
▁runat
▁postgresql
Pierre
apes
`-
ြ
▁Show
Sing
▁WCF
artifact
▁př
ะ
TL
Generator
бір
▁checkout
noc
gesellschaft
$_
ája
ᾶ
cross
▁reset
▁wol
▁clim
▁login
<0x5A>
гі
]=
:'
done
▁зна
gså
agger
panel
▁arr
Ï
˚
▁valu
▁König
▁compreh
▁developing
▁replacing
voke
Jean
owo
лены
fund
▁tinha
▁церков
material
▁vot
FLAG
щу
▁Indian
▁demanded
oul
<0x96>
стом
onte
pdf
ланд
▁site
'])
▁Martín
▁цер
PR
icture
▁buf
SO
équipe
▁Progress
ните
гля
▁vis
rit
chron
Math
▁END
▁Fich
дела
▁Secret
Tr
▁Luxemb
ielle
AF
Ő
▁gun
▁``
▁crypt
▁ско
'=>
>)
ством
▁NCAA
▁Scala
fold
▁Sund
▁sociale
Ctrl
▁Event
▁Film
iframe
////////
▁dro
нение
atan
▁therefore
▁batt
▁rav
пара
▁emulator
▁seriously
lr
шення
dic
▁Lanc
вод
Media
▁fewer
▁limit
▁calls
IOException
▁fram
▁hrab
id
hood
translate
▁mars
▁follows
▁VII
Custom
amment
[$
▁exceptions
う
▁candidates
<0xC3>
▁threaten
from
▁kop
▁Ver
▁Einwo
predict
izes
▁Санкт
cript
'));
ведения
onymous
power
▁theory
▁była
[^
▁vy
strings
▁муниципа
▁dash
uster
▁surprised
▁след
▁Duch
EP
хом
▁chang
▁bug
▁speak
▁też
⠀
▁Hal
▁carrera
▁...
unch
ũ
ise
dl
ledge
▁Fel
▁rgba
uclide
ongs
gex
articles
Total
allas
мі
?)
▁Be
filled
tikzpicture
................
▁Ergeb
▁Раз
']))
▁jednak
▁Regierung
user
